#ifndef AUDIO_CLASSIFICATION_MODEL_H
#define AUDIO_CLASSIFICATION_MODEL_H

const unsigned int audio_classification_model_len = 4624;
alignas(8) const unsigned char audio_classification_model[] = {
  0x1c, 0x00, 0x00, 0x00, 0x54, 0x46, 0x4c, 0x33, 0x14, 0x00, 0x20, 0x00,
   0x1c, 0x00, 0x18, 0x00, 0x14, 0x00, 0x10, 0x00, 0x0c, 0x00, 0x00, 0x00,
   0x08, 0x00, 0x04, 0x00, 0x14, 0x00, 0x00, 0x00, 0x1c, 0x00, 0x00, 0x00,
   0x8c, 0x00, 0x00, 0x00, 0xe4, 0x00, 0x00, 0x00, 0x54, 0x07, 0x00, 0x00,
   0x64, 0x07, 0x00, 0x00, 0x7c, 0x11, 0x00, 0x00, 0x03, 0x00, 0x00, 0x00,
   0x01, 0x00, 0x00, 0x00, 0x04, 0x00, 0x00, 0x00, 0xa2, 0xf7, 0xff, 0xff,
   0x0c, 0x00, 0x00, 0x00, 0x1c, 0x00, 0x00, 0x00, 0x3c, 0x00, 0x00, 0x00,
   0x0f, 0x00, 0x00, 0x00, 0x73, 0x65, 0x72, 0x76, 0x69, 0x6e, 0x67, 0x5f,
   0x64, 0x65, 0x66, 0x61, 0x75, 0x6c, 0x74, 0x00, 0x01, 0x00, 0x00, 0x00,
   0x04, 0x00, 0x00, 0x00, 0x90, 0xff, 0xff, 0xff, 0x11, 0x00, 0x00, 0x00,
   0x04, 0x00, 0x00, 0x00, 0x08, 0x00, 0x00, 0x00, 0x6f, 0x75, 0x74, 0x70,
   0x75, 0x74, 0x5f, 0x30, 0x00, 0x00, 0x00, 0x00, 0x01, 0x00, 0x00, 0x00,
   0x04, 0x00, 0x00, 0x00, 0x86, 0xf8, 0xff, 0xff, 0x04, 0x00, 0x00, 0x00,
   0x0c, 0x00, 0x00, 0x00, 0x6b, 0x65, 0x72, 0x61, 0x73, 0x5f, 0x74, 0x65,
   0x6e, 0x73, 0x6f, 0x72, 0x00, 0x00, 0x00, 0x00, 0x02, 0x00, 0x00, 0x00,
   0x34, 0x00, 0x00, 0x00, 0x04, 0x00, 0x00, 0x00, 0xdc, 0xff, 0xff, 0xff,
   0x14, 0x00, 0x00, 0x00, 0x04, 0x00, 0x00, 0x00, 0x13, 0x00, 0x00, 0x00,
   0x43, 0x4f, 0x4e, 0x56, 0x45, 0x52, 0x53, 0x49, 0x4f, 0x4e, 0x5f, 0x4d,
   0x45, 0x54, 0x41, 0x44, 0x41, 0x54, 0x41, 0x00, 0x08, 0x00, 0x0c, 0x00,
   0x08, 0x00, 0x04, 0x00, 0x08, 0x00, 0x00, 0x00, 0x13, 0x00, 0x00, 0x00,
   0x04, 0x00, 0x00, 0x00, 0x13, 0x00, 0x00, 0x00, 0x6d, 0x69, 0x6e, 0x5f,
   0x72, 0x75, 0x6e, 0x74, 0x69, 0x6d, 0x65, 0x5f, 0x76, 0x65, 0x72, 0x73,
   0x69, 0x6f, 0x6e, 0x00, 0x15, 0x00, 0x00, 0x00, 0x6c, 0x06, 0x00, 0x00,
   0x64, 0x06, 0x00, 0x00, 0x44, 0x06, 0x00, 0x00, 0xf4, 0x03, 0x00, 0x00,
   0x84, 0x03, 0x00, 0x00, 0xf4, 0x01, 0x00, 0x00, 0xd4, 0x01, 0x00, 0x00,
   0xac, 0x01, 0x00, 0x00, 0x94, 0x01, 0x00, 0x00, 0xf4, 0x00, 0x00, 0x00,
   0xd4, 0x00, 0x00, 0x00, 0xcc, 0x00, 0x00, 0x00, 0xc4, 0x00, 0x00, 0x00,
   0xbc, 0x00, 0x00, 0x00, 0xb4, 0x00, 0x00, 0x00, 0xac, 0x00, 0x00, 0x00,
   0xa4, 0x00, 0x00, 0x00, 0x9c, 0x00, 0x00, 0x00, 0x94, 0x00, 0x00, 0x00,
   0x74, 0x00, 0x00, 0x00, 0x04, 0x00, 0x00, 0x00, 0x56, 0xf9, 0xff, 0xff,
   0x04, 0x00, 0x00, 0x00, 0x60, 0x00, 0x00, 0x00, 0x0c, 0x00, 0x00, 0x00,
   0x08, 0x00, 0x0e, 0x00, 0x08, 0x00, 0x04, 0x00, 0x08, 0x00, 0x00, 0x00,
   0x10, 0x00, 0x00, 0x00, 0x28, 0x00, 0x00, 0x00, 0x00, 0x00, 0x06, 0x00,
   0x08, 0x00, 0x04, 0x00, 0x06, 0x00, 0x00, 0x00, 0x04, 0x00, 0x00, 0x00,
   0x01, 0x00, 0x00, 0x00, 0xea, 0x03, 0x00, 0x00, 0x0c, 0x00, 0x18, 0x00,
   0x14, 0x00, 0x10, 0x00, 0x0c, 0x00, 0x04, 0x00, 0x0c, 0x00, 0x00, 0x00,
   0x81, 0xf3, 0x13, 0x9d, 0x31, 0x5a, 0x66, 0x7b, 0x02, 0x00, 0x00, 0x00,
   0x02, 0x00, 0x00, 0x00, 0x04, 0x00, 0x00, 0x00, 0x06, 0x00, 0x00, 0x00,
   0x32, 0x2e, 0x31, 0x37, 0x2e, 0x30, 0x00, 0x00, 0xc2, 0xf9, 0xff, 0xff,
   0x04, 0x00, 0x00, 0x00, 0x10, 0x00, 0x00, 0x00, 0x31, 0x2e, 0x35, 0x2e,
   0x30, 0x00, 0x00, 0x00, 0x00, 0x00, 0x00, 0x00, 0x00, 0x00, 0x00, 0x00,
   0x7c, 0xf0, 0xff, 0xff, 0x80, 0xf0, 0xff, 0xff, 0x84, 0xf0, 0xff, 0xff,
   0x88, 0xf0, 0xff, 0xff, 0x8c, 0xf0, 0xff, 0xff, 0x90, 0xf0, 0xff, 0xff,
   0x94, 0xf0, 0xff, 0xff, 0x98, 0xf0, 0xff, 0xff, 0xfe, 0xf9, 0xff, 0xff,
   0x04, 0x00, 0x00, 0x00, 0x10, 0x00, 0x00, 0x00, 0x9f, 0x56, 0x87, 0xbe,
   0x96, 0xb3, 0xa1, 0xbe, 0x33, 0xfe, 0x8a, 0x3f, 0xd6, 0x11, 0xbb, 0x3e,
   0x1a, 0xfa, 0xff, 0xff, 0x04, 0x00, 0x00, 0x00, 0x90, 0x00, 0x00, 0x00,
   0xa7, 0x2f, 0x95, 0x3b, 0x8b, 0x5d, 0x10, 0x3e, 0xd0, 0x1f, 0x5b, 0xbe,
   0xd2, 0x4c, 0x55, 0xbf, 0x90, 0x01, 0x00, 0x3e, 0x4a, 0x56, 0xce, 0xbe,
   0x56, 0x34, 0x2d, 0x3f, 0x61, 0x8e, 0xc2, 0xbe, 0xcf, 0xcd, 0x8d, 0x3e,
   0x53, 0xe5, 0x0e, 0x3f, 0x1c, 0x91, 0xfd, 0xbe, 0x8c, 0x92, 0xf2, 0xbe,
   0x7a, 0x8a, 0x8a, 0x3f, 0x5f, 0xe9, 0x8f, 0x3e, 0x54, 0x99, 0x67, 0xbe,
   0x4d, 0xba, 0xa7, 0x3e, 0x75, 0xde, 0xc6, 0xbe, 0xdd, 0xa7, 0xd2, 0xbd,
   0x1a, 0x93, 0x35, 0x3e, 0xd7, 0xc2, 0x80, 0xbe, 0x8f, 0x6c, 0x13, 0x3e,
   0x8e, 0xe3, 0x1e, 0x3e, 0x5b, 0x3f, 0xc7, 0x3e, 0x10, 0xac, 0x77, 0x3d,
   0xcf, 0x27, 0xa0, 0x3e, 0x8f, 0xf1, 0x16, 0xbf, 0xa2, 0x49, 0xb6, 0xbe,
   0xf0, 0xcb, 0xec, 0xbe, 0x61, 0x93, 0x39, 0xbf, 0xce, 0x64, 0x2c, 0xbf,
   0x4d, 0x1d, 0x4b, 0x3e, 0x49, 0x32, 0x50, 0x3e, 0x4b, 0x23, 0xbf, 0xbd,
   0x9c, 0xd3, 0x67, 0xbf, 0x8b, 0xc7, 0x0b, 0xbf, 0xa9, 0x90, 0x9a, 0xbe,
   0xb6, 0xfa, 0xff, 0xff, 0x04, 0x00, 0x00, 0x00, 0x08, 0x00, 0x00, 0x00,
   0xff, 0xff, 0xff, 0xff, 0x18, 0x00, 0x00, 0x00, 0xca, 0xfa, 0xff, 0xff,
   0x04, 0x00, 0x00, 0x00, 0x18, 0x00, 0x00, 0x00, 0x89, 0x5f, 0x77, 0xbe,
   0x73, 0x1f, 0x5f, 0x3d, 0xa2, 0xd4, 0x23, 0xbf, 0xbc, 0xb6, 0x3d, 0xbe,
   0xd1, 0x16, 0x1d, 0x3f, 0xa8, 0x65, 0xc5, 0x3e, 0xee, 0xfa, 0xff, 0xff,
   0x04, 0x00, 0x00, 0x00, 0x10, 0x00, 0x00, 0x00, 0xb1, 0x0e, 0xca, 0xbe,
   0xc2, 0x47, 0x0c, 0xbd, 0x7b, 0x65, 0x61, 0x3f, 0x9c, 0xdf, 0x11, 0x3e,
   0x0a, 0xfb, 0xff, 0xff, 0x04, 0x00, 0x00, 0x00, 0x80, 0x01, 0x00, 0x00,
   0x52, 0x60, 0x66, 0x3e, 0x2a, 0x89, 0x84, 0x3f, 0xfe, 0x59, 0x1d, 0x3f,
   0x13, 0x0b, 0xdf, 0xbe, 0xba, 0x12, 0x0b, 0xbe, 0x6a, 0x9d, 0x32, 0x3f,
   0xae, 0x0d, 0x18, 0x3f, 0x91, 0x64, 0x70, 0xbe, 0xe1, 0xf7, 0xa9, 0x3e,
   0xce, 0x5c, 0xc2, 0x3e, 0x8f, 0xed, 0x04, 0x3f, 0xa7, 0xd9, 0x93, 0xbc,
   0x18, 0x06, 0x08, 0xbf, 0xfe, 0x3b, 0x22, 0x3d, 0xc1, 0xe4, 0x2e, 0x3e,
   0x04, 0xa3, 0x2e, 0x3e, 0xbb, 0x12, 0xb2, 0x3d, 0x95, 0xac, 0x82, 0x3e,
   0x19, 0xec, 0x40, 0x3e, 0x9a, 0x95, 0xef, 0xbd, 0x92, 0x63, 0xa1, 0xbe,
   0xf7, 0x4f, 0x19, 0xbf, 0x27, 0x00, 0x7b, 0xbd, 0xc3, 0x96, 0x46, 0xbe,
   0xfc, 0x7c, 0xdf, 0xbe, 0x35, 0x61, 0x7d, 0x3e, 0xfc, 0x4b, 0x0c, 0x3e,
   0xa4, 0x73, 0x14, 0xbe, 0xe1, 0xe6, 0xec, 0xbe, 0x2b, 0xf1, 0x9d, 0x3e,
   0x7b, 0xc8, 0x1f, 0x3e, 0x00, 0x8a, 0x4d, 0xbc, 0xae, 0xf2, 0xef, 0xbe,
   0x21, 0xe0, 0x91, 0x3d, 0x34, 0x10, 0x6a, 0xbe, 0x8c, 0x94, 0xe0, 0x3e,
   0x6c, 0x6d, 0x8a, 0xbe, 0xf0, 0x25, 0x6e, 0x3d, 0xbb, 0x0e, 0x1f, 0xbd,
   0x00, 0x76, 0xe6, 0x3e, 0x8a, 0x82, 0xda, 0xbe, 0x94, 0xfe, 0xa5, 0xbe,
   0x98, 0x6b, 0xcc, 0x3e, 0xd4, 0x8e, 0x45, 0x3e, 0x02, 0x6b, 0x20, 0xbd,
   0x89, 0xff, 0xdc, 0xbe, 0x5a, 0xba, 0xc8, 0xbc, 0xd0, 0xd1, 0x39, 0x3d,
   0x5e, 0x2b, 0xb8, 0xbe, 0xdf, 0x17, 0x0d, 0x3f, 0x7e, 0x35, 0x06, 0x3d,
   0xd9, 0x21, 0x2a, 0x3e, 0xe9, 0x71, 0xdf, 0xbe, 0x41, 0x3b, 0xe0, 0x3e,
   0x6c, 0xf1, 0x96, 0x3e, 0x75, 0xd4, 0x94, 0x3e, 0x7e, 0x0f, 0x24, 0xbe,
   0x64, 0xed, 0xb6, 0x3e, 0x96, 0xbd, 0x69, 0x3e, 0x03, 0x3a, 0xa1, 0x3d,
   0x83, 0x6e, 0x9f, 0x3e, 0xa0, 0x30, 0xe6, 0x3e, 0xdb, 0x65, 0xa9, 0x3d,
   0xc9, 0x8c, 0xd0, 0x3e, 0x4d, 0xba, 0xe2, 0x3e, 0x99, 0x9e, 0x86, 0xbe,
   0x7e, 0x58, 0xa5, 0x3e, 0xfc, 0xe3, 0xb6, 0x3e, 0xc0, 0xd5, 0x23, 0x3f,
   0x03, 0x72, 0xaa, 0x3f, 0x7d, 0x99, 0x28, 0x3d, 0x88, 0x63, 0x0e, 0x3e,
   0xaa, 0xfc, 0xe7, 0x3d, 0x74, 0x97, 0x3d, 0xbe, 0x68, 0x26, 0x1d, 0xbf,
   0x92, 0x74, 0x8f, 0xbe, 0x3d, 0xa5, 0x8a, 0x3d, 0x3f, 0x60, 0x4f, 0x3e,
   0x3b, 0x86, 0x0d, 0xbf, 0xa9, 0xbc, 0x87, 0xbe, 0x69, 0x63, 0x17, 0x3e,
   0xcf, 0x34, 0x26, 0xbc, 0xff, 0xec, 0x48, 0xbf, 0xde, 0x31, 0xb0, 0x3e,
   0x48, 0x83, 0x29, 0xbd, 0xb7, 0xb2, 0x6a, 0x3f, 0x5c, 0x8d, 0x47, 0x3f,
   0x29, 0x4d, 0x19, 0x3e, 0x34, 0x18, 0x39, 0x3f, 0xeb, 0xb2, 0xcd, 0x3e,
   0x84, 0xf8, 0xb6, 0x3e, 0x50, 0x15, 0xe6, 0xbd, 0x4e, 0x56, 0x7e, 0x3e,
   0xa7, 0xc6, 0x8a, 0x3f, 0xd0, 0xec, 0x08, 0x3f, 0x75, 0x51, 0xab, 0x3e,
   0x96, 0xfc, 0xff, 0xff, 0x04, 0x00, 0x00, 0x00, 0x60, 0x00, 0x00, 0x00,
   0x4b, 0xe3, 0x91, 0xbf, 0xc3, 0x33, 0x19, 0xbf, 0x6b, 0x9f, 0x8c, 0xbe,
   0x06, 0x95, 0x27, 0x3f, 0xd8, 0xc4, 0x37, 0xbe, 0x01, 0xe3, 0xcf, 0xbe,
   0x6a, 0x6b, 0xaf, 0x3e, 0x3f, 0x1c, 0x0e, 0xbf, 0x19, 0x4e, 0xc4, 0x3d,
   0x3d, 0xa1, 0x10, 0xbe, 0xcf, 0xb7, 0x94, 0xbf, 0x04, 0x35, 0xd2, 0x3e,
   0x34, 0x6c, 0x3b, 0x3e, 0x0b, 0x40, 0x4f, 0xbe, 0x37, 0x26, 0x2a, 0x3e,
   0x21, 0x20, 0xb8, 0xbf, 0x7c, 0x64, 0x45, 0x3f, 0x81, 0x3e, 0xd2, 0x3e,
   0xfa, 0x29, 0xb1, 0xbf, 0x1e, 0xbc, 0xff, 0xbe, 0x40, 0x7a, 0x76, 0x3d,
   0x26, 0x73, 0x2d, 0xbf, 0x17, 0x52, 0x0a, 0xc0, 0xa8, 0x45, 0x15, 0x3f,
   0x02, 0xfd, 0xff, 0xff, 0x04, 0x00, 0x00, 0x00, 0x40, 0x02, 0x00, 0x00,
   0xa6, 0x5b, 0x27, 0xbf, 0xb7, 0xae, 0xf7, 0xbe, 0xb5, 0x40, 0xdc, 0x3d,
   0x7b, 0x94, 0xe3, 0x3e, 0xbe, 0x84, 0xb0, 0xbe, 0x00, 0x6d, 0x4e, 0xbf,
   0x48, 0x71, 0xe2, 0xbc, 0x3d, 0x87, 0xca, 0x3e, 0x4d, 0xa9, 0x58, 0xbd,
   0x70, 0xd3, 0x14, 0xbf, 0xd0, 0xf1, 0x99, 0x3d, 0xdb, 0x90, 0xed, 0x3e,
   0xfc, 0x7e, 0x4a, 0xbe, 0x2a, 0x8f, 0x95, 0x3d, 0x9b, 0xb4, 0xee, 0xbe,
   0xf1, 0xb7, 0x2c, 0x3e, 0x10, 0x85, 0x20, 0x3f, 0xfc, 0xd1, 0x65, 0x3d,
   0x6a, 0xc9, 0x1c, 0x3f, 0x92, 0x71, 0x4e, 0xbe, 0x54, 0x17, 0x8b, 0x3e,
   0x10, 0x28, 0x90, 0xbd, 0x5b, 0xb1, 0x5f, 0x3f, 0x03, 0x77, 0x8d, 0x3e,
   0x1d, 0xd1, 0x64, 0xbd, 0x08, 0x49, 0xd7, 0xbd, 0xb6, 0x92, 0x8c, 0x3e,
   0xe8, 0xa0, 0x10, 0xbf, 0x5c, 0x61, 0x92, 0x3e, 0xb1, 0xbe, 0xaa, 0x3e,
   0xb3, 0x73, 0xa9, 0x3e, 0x96, 0xcf, 0x85, 0xbe, 0x4b, 0x65, 0x73, 0x3e,
   0xd1, 0x15, 0x5c, 0x3d, 0xdd, 0x68, 0x3f, 0xbc, 0xdd, 0x92, 0x03, 0xbf,
   0x54, 0xac, 0xa7, 0x3e, 0xc4, 0x37, 0xd4, 0xbe, 0x58, 0x1e, 0x16, 0x3f,
   0x4d, 0xa9, 0x19, 0x3e, 0x59, 0x27, 0xb7, 0x3c, 0xe7, 0xa2, 0x67, 0x3e,
   0xfc, 0xa3, 0x62, 0x3d, 0x1e, 0x55, 0xae, 0x3e, 0x79, 0x0e, 0x20, 0x3e,
   0x5c, 0xc5, 0xd9, 0xbe, 0x3b, 0x7a, 0x32, 0x3e, 0x90, 0x69, 0x20, 0x3b,
   0x53, 0x42, 0x7f, 0xbe, 0x00, 0x16, 0xb3, 0x3e, 0xa8, 0x07, 0xfc, 0x3e,
   0x02, 0xdc, 0xd1, 0xbd, 0xb4, 0xba, 0x4b, 0xbe, 0x55, 0x56, 0xca, 0x3e,
   0xba, 0x80, 0x8d, 0x3e, 0xc1, 0xb3, 0x88, 0xbe, 0xb6, 0x1a, 0x29, 0xbd,
   0x7a, 0x10, 0x95, 0x3e, 0x84, 0x78, 0x05, 0x3f, 0x2b, 0xca, 0x58, 0xbe,
   0xba, 0x7b, 0x10, 0xbf, 0x2c, 0x55, 0x4b, 0xbe, 0xe5, 0xa7, 0x99, 0xbd,
   0x23, 0x75, 0xd3, 0x3c, 0x47, 0x50, 0x6e, 0xbe, 0x29, 0x5a, 0x1d, 0xbe,
   0xad, 0x7b, 0x04, 0xbb, 0x04, 0xa8, 0x57, 0xbe, 0x33, 0xda, 0x02, 0xbf,
   0x90, 0x3d, 0x1b, 0xbf, 0x2f, 0x2c, 0x30, 0xbe, 0x0e, 0xca, 0x1a, 0x3d,
   0x4b, 0xf0, 0x80, 0x3e, 0x26, 0x1f, 0xce, 0x3e, 0x3d, 0xd0, 0x24, 0x3f,
   0x1a, 0x04, 0x9f, 0xbd, 0x99, 0xf8, 0x93, 0x3e, 0x9b, 0xca, 0x38, 0x3f,
   0x09, 0xe7, 0x0c, 0x3f, 0x58, 0x58, 0x3a, 0x3e, 0x39, 0x95, 0x19, 0x3e,
   0x1e, 0xa6, 0x15, 0x3e, 0x78, 0x23, 0x2c, 0x3f, 0xc7, 0x74, 0x37, 0xbe,
   0xfc, 0x1a, 0x6d, 0xbe, 0xd5, 0xfd, 0xc2, 0x3d, 0x29, 0xab, 0x62, 0x3e,
   0xb0, 0x78, 0x7e, 0xbe, 0x32, 0xa4, 0xdd, 0xbe, 0x59, 0xd7, 0x81, 0x3d,
   0xca, 0x92, 0x3d, 0x3e, 0x75, 0xc9, 0x4a, 0xbe, 0x8f, 0x48, 0xbd, 0xbe,
   0x11, 0xfe, 0x82, 0x3e, 0x56, 0x71, 0x48, 0x3f, 0xc5, 0xfc, 0xec, 0x3d,
   0x98, 0x43, 0x48, 0x3e, 0x46, 0xf0, 0x4c, 0xbf, 0xae, 0xbf, 0x82, 0xbe,
   0x8c, 0x97, 0x06, 0x3e, 0x9f, 0xcd, 0xa8, 0x3c, 0x98, 0x8f, 0x07, 0xbf,
   0x4a, 0xca, 0x19, 0xbf, 0x91, 0x86, 0x96, 0x3e, 0xed, 0xf5, 0x12, 0x3d,
   0x8f, 0x86, 0x54, 0xbe, 0x4e, 0x2b, 0x34, 0xbf, 0x82, 0xdb, 0x5c, 0x3e,
   0x47, 0x29, 0x2b, 0xbe, 0xce, 0xf9, 0x18, 0x3e, 0x23, 0x51, 0x50, 0xbe,
   0x54, 0x84, 0x87, 0x3e, 0x73, 0x10, 0x52, 0x3e, 0x5f, 0x00, 0xda, 0x3d,
   0xc5, 0x7e, 0x01, 0x3e, 0x06, 0x0f, 0x87, 0xbe, 0x22, 0x7f, 0x5d, 0xbe,
   0xc6, 0xfe, 0x42, 0x3d, 0x97, 0x26, 0x10, 0xbd, 0x4b, 0xc6, 0xa1, 0xbd,
   0xd1, 0x20, 0xe0, 0xbd, 0x9b, 0x5f, 0x9c, 0xbe, 0x52, 0x26, 0x05, 0x3d,
   0x59, 0x97, 0x46, 0xbe, 0xa5, 0x4d, 0x17, 0xbe, 0x76, 0x35, 0xa7, 0xbe,
   0x35, 0xd1, 0x49, 0x3e, 0xae, 0x3c, 0xf8, 0x3d, 0x54, 0xf7, 0x40, 0xbe,
   0x7f, 0x32, 0xa7, 0xbe, 0xc5, 0xc6, 0xd6, 0xbc, 0xe1, 0x14, 0x91, 0xbe,
   0xfe, 0x2e, 0x9d, 0xbe, 0xfa, 0x87, 0x86, 0xbe, 0xb6, 0x7c, 0x3e, 0x3e,
   0xbc, 0xaf, 0xbc, 0xbd, 0xc4, 0x4d, 0x68, 0xbe, 0xaa, 0x70, 0xb9, 0x3a,
   0x84, 0xbd, 0x49, 0x3e, 0xfd, 0xcc, 0xe0, 0x3d, 0x56, 0x07, 0x3c, 0xbe,
   0x30, 0xf9, 0x02, 0x3e, 0x41, 0x19, 0xae, 0xbe, 0xff, 0x34, 0x7d, 0xbe,
   0x4e, 0xff, 0xff, 0xff, 0x04, 0x00, 0x00, 0x00, 0x10, 0x00, 0x00, 0x00,
   0x67, 0x19, 0x30, 0x3f, 0x04, 0x3f, 0xe9, 0x3d, 0x0a, 0xaf, 0x83, 0x3e,
   0x04, 0xfb, 0x9c, 0xbd, 0x08, 0xf6, 0xff, 0xff, 0x0c, 0xf6, 0xff, 0xff,
   0x0f, 0x00, 0x00, 0x00, 0x4d, 0x4c, 0x49, 0x52, 0x20, 0x43, 0x6f, 0x6e,
   0x76, 0x65, 0x72, 0x74, 0x65, 0x64, 0x2e, 0x00, 0x01, 0x00, 0x00, 0x00,
   0x14, 0x00, 0x00, 0x00, 0x00, 0x00, 0x0e, 0x00, 0x18, 0x00, 0x14, 0x00,
   0x10, 0x00, 0x0c, 0x00, 0x08, 0x00, 0x04, 0x00, 0x0e, 0x00, 0x00, 0x00,
   0x14, 0x00, 0x00, 0x00, 0x1c, 0x00, 0x00, 0x00, 0x54, 0x02, 0x00, 0x00,
   0x58, 0x02, 0x00, 0x00, 0x5c, 0x02, 0x00, 0x00, 0x04, 0x00, 0x00, 0x00,
   0x6d, 0x61, 0x69, 0x6e, 0x00, 0x00, 0x00, 0x00, 0x08, 0x00, 0x00, 0x00,
   0xec, 0x01, 0x00, 0x00, 0x88, 0x01, 0x00, 0x00, 0x34, 0x01, 0x00, 0x00,
   0xf0, 0x00, 0x00, 0x00, 0xc8, 0x00, 0x00, 0x00, 0x78, 0x00, 0x00, 0x00,
   0x40, 0x00, 0x00, 0x00, 0x04, 0x00, 0x00, 0x00, 0xa2, 0xfe, 0xff, 0xff,
   0x1c, 0x00, 0x00, 0x00, 0x00, 0x00, 0x00, 0x09, 0x1c, 0x00, 0x00, 0x00,
   0x20, 0x00, 0x00, 0x00, 0x04, 0x00, 0x00, 0x00, 0x00, 0x00, 0x06, 0x00,
   0x08, 0x00, 0x04, 0x00, 0x06, 0x00, 0x00, 0x00, 0x00, 0x00, 0x80, 0x3f,
   0x01, 0x00, 0x00, 0x00, 0x11, 0x00, 0x00, 0x00, 0x01, 0x00, 0x00, 0x00,
   0x10, 0x00, 0x00, 0x00, 0xda, 0xfe, 0xff, 0xff, 0x14, 0x00, 0x00, 0x00,
   0x00, 0x00, 0x00, 0x08, 0x10, 0x00, 0x00, 0x00, 0x14, 0x00, 0x00, 0x00,
   0x03, 0x00, 0x00, 0x00, 0xd4, 0xf6, 0xff, 0xff, 0x01, 0x00, 0x00, 0x00,
   0x10, 0x00, 0x00, 0x00, 0x03, 0x00, 0x00, 0x00, 0x0f, 0x00, 0x00, 0x00,
   0x03, 0x00, 0x00, 0x00, 0x06, 0x00, 0x00, 0x00, 0x0e, 0xff, 0xff, 0xff,
   0x1c, 0x00, 0x00, 0x00, 0x00, 0x00, 0x00, 0x08, 0x1c, 0x00, 0x00, 0x00,
   0x20, 0x00, 0x00, 0x00, 0x03, 0x00, 0x00, 0x00, 0x00, 0x00, 0x06, 0x00,
   0x08, 0x00, 0x07, 0x00, 0x06, 0x00, 0x00, 0x00, 0x00, 0x00, 0x00, 0x01,
   0x01, 0x00, 0x00, 0x00, 0x0f, 0x00, 0x00, 0x00, 0x03, 0x00, 0x00, 0x00,
   0x0e, 0x00, 0x00, 0x00, 0x04, 0x00, 0x00, 0x00, 0x05, 0x00, 0x00, 0x00,
   0x00, 0x00, 0x0a, 0x00, 0x10, 0x00, 0x0c, 0x00, 0x08, 0x00, 0x04, 0x00,
   0x0a, 0x00, 0x00, 0x00, 0x0c, 0x00, 0x00, 0x00, 0x10, 0x00, 0x00, 0x00,
   0x02, 0x00, 0x00, 0x00, 0x01, 0x00, 0x00, 0x00, 0x0e, 0x00, 0x00, 0x00,
   0x02, 0x00, 0x00, 0x00, 0x0d, 0x00, 0x00, 0x00, 0x07, 0x00, 0x00, 0x00,
   0x7e, 0xff, 0xff, 0xff, 0x14, 0x00, 0x00, 0x00, 0x00, 0x00, 0x00, 0x05,
   0x24, 0x00, 0x00, 0x00, 0x28, 0x00, 0x00, 0x00, 0x01, 0x00, 0x00, 0x00,
   0x6e, 0xff, 0xff, 0xff, 0x02, 0x00, 0x00, 0x00, 0x02, 0x00, 0x00, 0x00,
   0x02, 0x00, 0x00, 0x00, 0x02, 0x00, 0x00, 0x00, 0x00, 0x00, 0x00, 0x01,
   0x01, 0x00, 0x00, 0x00, 0x0d, 0x00, 0x00, 0x00, 0x01, 0x00, 0x00, 0x00,
   0x0c, 0x00, 0x00, 0x00, 0x5e, 0xff, 0xff, 0xff, 0x10, 0x00, 0x00, 0x00,
   0x00, 0x00, 0x00, 0x01, 0x1c, 0x00, 0x00, 0x00, 0x20, 0x00, 0x00, 0x00,
   0x50, 0xff, 0xff, 0xff, 0x00, 0x00, 0x00, 0x01, 0x01, 0x00, 0x00, 0x00,
   0x01, 0x00, 0x00, 0x00, 0x00, 0x00, 0x00, 0x01, 0x01, 0x00, 0x00, 0x00,
   0x0c, 0x00, 0x00, 0x00, 0x03, 0x00, 0x00, 0x00, 0x0b, 0x00, 0x00, 0x00,
   0x02, 0x00, 0x00, 0x00, 0x01, 0x00, 0x00, 0x00, 0x00, 0x00, 0x0e, 0x00,
   0x1a, 0x00, 0x14, 0x00, 0x10, 0x00, 0x0c, 0x00, 0x0b, 0x00, 0x04, 0x00,
   0x0e, 0x00, 0x00, 0x00, 0x24, 0x00, 0x00, 0x00, 0x00, 0x00, 0x00, 0x05,
   0x34, 0x00, 0x00, 0x00, 0x38, 0x00, 0x00, 0x00, 0x01, 0x00, 0x00, 0x00,
   0x00, 0x00, 0x0e, 0x00, 0x18, 0x00, 0x17, 0x00, 0x10, 0x00, 0x0c, 0x00,
   0x08, 0x00, 0x04, 0x00, 0x0e, 0x00, 0x00, 0x00, 0x02, 0x00, 0x00, 0x00,
   0x02, 0x00, 0x00, 0x00, 0x02, 0x00, 0x00, 0x00, 0x02, 0x00, 0x00, 0x00,
   0x00, 0x00, 0x00, 0x01, 0x01, 0x00, 0x00, 0x00, 0x0b, 0x00, 0x00, 0x00,
   0x01, 0x00, 0x00, 0x00, 0x0a, 0x00, 0x00, 0x00, 0x00, 0x00, 0x0e, 0x00,
   0x14, 0x00, 0x00, 0x00, 0x10, 0x00, 0x0c, 0x00, 0x0b, 0x00, 0x04, 0x00,
   0x0e, 0x00, 0x00, 0x00, 0x1c, 0x00, 0x00, 0x00, 0x00, 0x00, 0x00, 0x01,
   0x28, 0x00, 0x00, 0x00, 0x2c, 0x00, 0x00, 0x00, 0x0c, 0x00, 0x14, 0x00,
   0x13, 0x00, 0x0c, 0x00, 0x08, 0x00, 0x07, 0x00, 0x0c, 0x00, 0x00, 0x00,
   0x00, 0x00, 0x00, 0x01, 0x01, 0x00, 0x00, 0x00, 0x01, 0x00, 0x00, 0x00,
   0x00, 0x00, 0x00, 0x01, 0x01, 0x00, 0x00, 0x00, 0x0a, 0x00, 0x00, 0x00,
   0x03, 0x00, 0x00, 0x00, 0x00, 0x00, 0x00, 0x00, 0x08, 0x00, 0x00, 0x00,
   0x09, 0x00, 0x00, 0x00, 0x01, 0x00, 0x00, 0x00, 0x11, 0x00, 0x00, 0x00,
   0x01, 0x00, 0x00, 0x00, 0x00, 0x00, 0x00, 0x00, 0x12, 0x00, 0x00, 0x00,
   0x20, 0x07, 0x00, 0x00, 0xcc, 0x06, 0x00, 0x00, 0x6c, 0x06, 0x00, 0x00,
   0x2c, 0x06, 0x00, 0x00, 0xec, 0x05, 0x00, 0x00, 0xb0, 0x05, 0x00, 0x00,
   0x74, 0x05, 0x00, 0x00, 0x34, 0x05, 0x00, 0x00, 0xc0, 0x04, 0x00, 0x00,
   0x3c, 0x04, 0x00, 0x00, 0x90, 0x03, 0x00, 0x00, 0x18, 0x03, 0x00, 0x00,
   0x48, 0x02, 0x00, 0x00, 0xcc, 0x01, 0x00, 0x00, 0x6c, 0x01, 0x00, 0x00,
   0xdc, 0x00, 0x00, 0x00, 0x60, 0x00, 0x00, 0x00, 0x04, 0x00, 0x00, 0x00,
   0x3e, 0xf9, 0xff, 0xff, 0x00, 0x00, 0x00, 0x01, 0x14, 0x00, 0x00, 0x00,
   0x1c, 0x00, 0x00, 0x00, 0x1c, 0x00, 0x00, 0x00, 0x12, 0x00, 0x00, 0x00,
   0x34, 0x00, 0x00, 0x00, 0x02, 0x00, 0x00, 0x00, 0xff, 0xff, 0xff, 0xff,
   0x06, 0x00, 0x00, 0x00, 0x20, 0xf9, 0xff, 0xff, 0x1b, 0x00, 0x00, 0x00,
   0x53, 0x74, 0x61, 0x74, 0x65, 0x66, 0x75, 0x6c, 0x50, 0x61, 0x72, 0x74,
   0x69, 0x74, 0x69, 0x6f, 0x6e, 0x65, 0x64, 0x43, 0x61, 0x6c, 0x6c, 0x5f,
   0x31, 0x3a, 0x30, 0x00, 0x02, 0x00, 0x00, 0x00, 0x01, 0x00, 0x00, 0x00,
   0x06, 0x00, 0x00, 0x00, 0x96, 0xf9, 0xff, 0xff, 0x00, 0x00, 0x00, 0x01,
   0x14, 0x00, 0x00, 0x00, 0x1c, 0x00, 0x00, 0x00, 0x1c, 0x00, 0x00, 0x00,
   0x11, 0x00, 0x00, 0x00, 0x54, 0x00, 0x00, 0x00, 0x02, 0x00, 0x00, 0x00,
   0xff, 0xff, 0xff, 0xff, 0x06, 0x00, 0x00, 0x00, 0x78, 0xf9, 0xff, 0xff,
   0x38, 0x00, 0x00, 0x00, 0x73, 0x65, 0x71, 0x75, 0x65, 0x6e, 0x74, 0x69,
   0x61, 0x6c, 0x5f, 0x31, 0x2f, 0x64, 0x65, 0x6e, 0x73, 0x65, 0x5f, 0x31,
   0x5f, 0x32, 0x2f, 0x4d, 0x61, 0x74, 0x4d, 0x75, 0x6c, 0x3b, 0x73, 0x65,
   0x71, 0x75, 0x65, 0x6e, 0x74, 0x69, 0x61, 0x6c, 0x5f, 0x31, 0x2f, 0x64,
   0x65, 0x6e, 0x73, 0x65, 0x5f, 0x31, 0x5f, 0x32, 0x2f, 0x41, 0x64, 0x64,
   0x00, 0x00, 0x00, 0x00, 0x02, 0x00, 0x00, 0x00, 0x01, 0x00, 0x00, 0x00,
   0x06, 0x00, 0x00, 0x00, 0x0e, 0xfa, 0xff, 0xff, 0x00, 0x00, 0x00, 0x01,
   0x14, 0x00, 0x00, 0x00, 0x1c, 0x00, 0x00, 0x00, 0x1c, 0x00, 0x00, 0x00,
   0x10, 0x00, 0x00, 0x00, 0x68, 0x00, 0x00, 0x00, 0x02, 0x00, 0x00, 0x00,
   0xff, 0xff, 0xff, 0xff, 0x04, 0x00, 0x00, 0x00, 0xf0, 0xf9, 0xff, 0xff,
   0x4e, 0x00, 0x00, 0x00, 0x73, 0x65, 0x71, 0x75, 0x65, 0x6e, 0x74, 0x69,
   0x61, 0x6c, 0x5f, 0x31, 0x2f, 0x64, 0x65, 0x6e, 0x73, 0x65, 0x5f, 0x31,
   0x2f, 0x4d, 0x61, 0x74, 0x4d, 0x75, 0x6c, 0x3b, 0x73, 0x65, 0x71, 0x75,
   0x65, 0x6e, 0x74, 0x69, 0x61, 0x6c, 0x5f, 0x31, 0x2f, 0x64, 0x65, 0x6e,
   0x73, 0x65, 0x5f, 0x31, 0x2f, 0x52, 0x65, 0x6c, 0x75, 0x3b, 0x73, 0x65,
   0x71, 0x75, 0x65, 0x6e, 0x74, 0x69, 0x61, 0x6c, 0x5f, 0x31, 0x2f, 0x64,
   0x65, 0x6e, 0x73, 0x65, 0x5f, 0x31, 0x2f, 0x41, 0x64, 0x64, 0x00, 0x00,
   0x02, 0x00, 0x00, 0x00, 0x01, 0x00, 0x00, 0x00, 0x04, 0x00, 0x00, 0x00,
   0x9a, 0xfa, 0xff, 0xff, 0x00, 0x00, 0x00, 0x01, 0x14, 0x00, 0x00, 0x00,
   0x1c, 0x00, 0x00, 0x00, 0x1c, 0x00, 0x00, 0x00, 0x0f, 0x00, 0x00, 0x00,
   0x38, 0x00, 0x00, 0x00, 0x02, 0x00, 0x00, 0x00, 0xff, 0xff, 0xff, 0xff,
   0x18, 0x00, 0x00, 0x00, 0x7c, 0xfa, 0xff, 0xff, 0x1e, 0x00, 0x00, 0x00,
   0x73, 0x65, 0x71, 0x75, 0x65, 0x6e, 0x74, 0x69, 0x61, 0x6c, 0x5f, 0x31,
   0x2f, 0x66, 0x6c, 0x61, 0x74, 0x74, 0x65, 0x6e, 0x5f, 0x31, 0x2f, 0x52,
   0x65, 0x73, 0x68, 0x61, 0x70, 0x65, 0x00, 0x00, 0x02, 0x00, 0x00, 0x00,
   0x01, 0x00, 0x00, 0x00, 0x18, 0x00, 0x00, 0x00, 0xf6, 0xfa, 0xff, 0xff,
   0x00, 0x00, 0x00, 0x01, 0x14, 0x00, 0x00, 0x00, 0x24, 0x00, 0x00, 0x00,
   0x24, 0x00, 0x00, 0x00, 0x0e, 0x00, 0x00, 0x00, 0x4c, 0x00, 0x00, 0x00,
   0x04, 0x00, 0x00, 0x00, 0xff, 0xff, 0xff, 0xff, 0x02, 0x00, 0x00, 0x00,
   0x03, 0x00, 0x00, 0x00, 0x04, 0x00, 0x00, 0x00, 0xe0, 0xfa, 0xff, 0xff,
   0x28, 0x00, 0x00, 0x00, 0x73, 0x65, 0x71, 0x75, 0x65, 0x6e, 0x74, 0x69,
   0x61, 0x6c, 0x5f, 0x31, 0x2f, 0x6d, 0x61, 0x78, 0x5f, 0x70, 0x6f, 0x6f,
   0x6c, 0x69, 0x6e, 0x67, 0x32, 0x64, 0x5f, 0x31, 0x5f, 0x32, 0x2f, 0x4d,
   0x61, 0x78, 0x50, 0x6f, 0x6f, 0x6c, 0x32, 0x64, 0x00, 0x00, 0x00, 0x00,
   0x04, 0x00, 0x00, 0x00, 0x01, 0x00, 0x00, 0x00, 0x02, 0x00, 0x00, 0x00,
   0x03, 0x00, 0x00, 0x00, 0x04, 0x00, 0x00, 0x00, 0x6e, 0xfb, 0xff, 0xff,
   0x00, 0x00, 0x00, 0x01, 0x14, 0x00, 0x00, 0x00, 0x24, 0x00, 0x00, 0x00,
   0x24, 0x00, 0x00, 0x00, 0x0d, 0x00, 0x00, 0x00, 0xa0, 0x00, 0x00, 0x00,
   0x04, 0x00, 0x00, 0x00, 0xff, 0xff, 0xff, 0xff, 0x05, 0x00, 0x00, 0x00,
   0x07, 0x00, 0x00, 0x00, 0x04, 0x00, 0x00, 0x00, 0x58, 0xfb, 0xff, 0xff,
   0x7c, 0x00, 0x00, 0x00, 0x73, 0x65, 0x71, 0x75, 0x65, 0x6e, 0x74, 0x69,
   0x61, 0x6c, 0x5f, 0x31, 0x2f, 0x63, 0x6f, 0x6e, 0x76, 0x32, 0x64, 0x5f,
   0x31, 0x5f, 0x32, 0x2f, 0x52, 0x65, 0x6c, 0x75, 0x3b, 0x73, 0x65, 0x71,
   0x75, 0x65, 0x6e, 0x74, 0x69, 0x61, 0x6c, 0x5f, 0x31, 0x2f, 0x63, 0x6f,
   0x6e, 0x76, 0x32, 0x64, 0x5f, 0x31, 0x5f, 0x32, 0x2f, 0x61, 0x64, 0x64,
   0x3b, 0x73, 0x65, 0x71, 0x75, 0x65, 0x6e, 0x74, 0x69, 0x61, 0x6c, 0x5f,
   0x31, 0x2f, 0x63, 0x6f, 0x6e, 0x76, 0x32, 0x64, 0x5f, 0x31, 0x5f, 0x32,
   0x2f, 0x63, 0x6f, 0x6e, 0x76, 0x6f, 0x6c, 0x75, 0x74, 0x69, 0x6f, 0x6e,
   0x3b, 0x73, 0x65, 0x71, 0x75, 0x65, 0x6e, 0x74, 0x69, 0x61, 0x6c, 0x5f,
   0x31, 0x2f, 0x63, 0x6f, 0x6e, 0x76, 0x32, 0x64, 0x5f, 0x31, 0x5f, 0x32,
   0x2f, 0x52, 0x65, 0x73, 0x68, 0x61, 0x70, 0x65, 0x00, 0x00, 0x00, 0x00,
   0x04, 0x00, 0x00, 0x00, 0x01, 0x00, 0x00, 0x00, 0x05, 0x00, 0x00, 0x00,
   0x07, 0x00, 0x00, 0x00, 0x04, 0x00, 0x00, 0x00, 0x3a, 0xfc, 0xff, 0xff,
   0x00, 0x00, 0x00, 0x01, 0x14, 0x00, 0x00, 0x00, 0x24, 0x00, 0x00, 0x00,
   0x24, 0x00, 0x00, 0x00, 0x0c, 0x00, 0x00, 0x00, 0x48, 0x00, 0x00, 0x00,
   0x04, 0x00, 0x00, 0x00, 0xff, 0xff, 0xff, 0xff, 0x07, 0x00, 0x00, 0x00,
   0x09, 0x00, 0x00, 0x00, 0x04, 0x00, 0x00, 0x00, 0x24, 0xfc, 0xff, 0xff,
   0x26, 0x00, 0x00, 0x00, 0x73, 0x65, 0x71, 0x75, 0x65, 0x6e, 0x74, 0x69,
   0x61, 0x6c, 0x5f, 0x31, 0x2f, 0x6d, 0x61, 0x78, 0x5f, 0x70, 0x6f, 0x6f,
   0x6c, 0x69, 0x6e, 0x67, 0x32, 0x64, 0x5f, 0x31, 0x2f, 0x4d, 0x61, 0x78,
   0x50, 0x6f, 0x6f, 0x6c, 0x32, 0x64, 0x00, 0x00, 0x04, 0x00, 0x00, 0x00,
   0x01, 0x00, 0x00, 0x00, 0x07, 0x00, 0x00, 0x00, 0x09, 0x00, 0x00, 0x00,
   0x04, 0x00, 0x00, 0x00, 0xae, 0xfc, 0xff, 0xff, 0x00, 0x00, 0x00, 0x01,
   0x14, 0x00, 0x00, 0x00, 0x24, 0x00, 0x00, 0x00, 0x24, 0x00, 0x00, 0x00,
   0x0b, 0x00, 0x00, 0x00, 0x7c, 0x00, 0x00, 0x00, 0x04, 0x00, 0x00, 0x00,
   0xff, 0xff, 0xff, 0xff, 0x0e, 0x00, 0x00, 0x00, 0x12, 0x00, 0x00, 0x00,
   0x04, 0x00, 0x00, 0x00, 0x98, 0xfc, 0xff, 0xff, 0x58, 0x00, 0x00, 0x00,
   0x73, 0x65, 0x71, 0x75, 0x65, 0x6e, 0x74, 0x69, 0x61, 0x6c, 0x5f, 0x31,
   0x2f, 0x63, 0x6f, 0x6e, 0x76, 0x32, 0x64, 0x5f, 0x31, 0x2f, 0x52, 0x65,
   0x6c, 0x75, 0x3b, 0x73, 0x65, 0x71, 0x75, 0x65, 0x6e, 0x74, 0x69, 0x61,
   0x6c, 0x5f, 0x31, 0x2f, 0x63, 0x6f, 0x6e, 0x76, 0x32, 0x64, 0x5f, 0x31,
   0x2f, 0x61, 0x64, 0x64, 0x3b, 0x73, 0x65, 0x71, 0x75, 0x65, 0x6e, 0x74,
   0x69, 0x61, 0x6c, 0x5f, 0x31, 0x2f, 0x63, 0x6f, 0x6e, 0x76, 0x32, 0x64,
   0x5f, 0x31, 0x2f, 0x63, 0x6f, 0x6e, 0x76, 0x6f, 0x6c, 0x75, 0x74, 0x69,
   0x6f, 0x6e, 0x3b, 0x31, 0x00, 0x00, 0x00, 0x00, 0x04, 0x00, 0x00, 0x00,
   0x01, 0x00, 0x00, 0x00, 0x0e, 0x00, 0x00, 0x00, 0x12, 0x00, 0x00, 0x00,
   0x04, 0x00, 0x00, 0x00, 0xa6, 0xfd, 0xff, 0xff, 0x00, 0x00, 0x00, 0x01,
   0x10, 0x00, 0x00, 0x00, 0x10, 0x00, 0x00, 0x00, 0x0a, 0x00, 0x00, 0x00,
   0x64, 0x00, 0x00, 0x00, 0x28, 0xfd, 0xff, 0xff, 0x57, 0x00, 0x00, 0x00,
   0x73, 0x65, 0x71, 0x75, 0x65, 0x6e, 0x74, 0x69, 0x61, 0x6c, 0x5f, 0x31,
   0x2f, 0x63, 0x6f, 0x6e, 0x76, 0x32, 0x64, 0x5f, 0x31, 0x2f, 0x52, 0x65,
   0x6c, 0x75, 0x3b, 0x73, 0x65, 0x71, 0x75, 0x65, 0x6e, 0x74, 0x69, 0x61,
   0x6c, 0x5f, 0x31, 0x2f, 0x63, 0x6f, 0x6e, 0x76, 0x32, 0x64, 0x5f, 0x31,
   0x2f, 0x61, 0x64, 0x64, 0x3b, 0x73, 0x65, 0x71, 0x75, 0x65, 0x6e, 0x74,
   0x69, 0x61, 0x6c, 0x5f, 0x31, 0x2f, 0x63, 0x6f, 0x6e, 0x76, 0x32, 0x64,
   0x5f, 0x31, 0x2f, 0x63, 0x6f, 0x6e, 0x76, 0x6f, 0x6c, 0x75, 0x74, 0x69,
   0x6f, 0x6e, 0x3b, 0x00, 0x01, 0x00, 0x00, 0x00, 0x04, 0x00, 0x00, 0x00,
   0x26, 0xfe, 0xff, 0xff, 0x00, 0x00, 0x00, 0x01, 0x10, 0x00, 0x00, 0x00,
   0x10, 0x00, 0x00, 0x00, 0x09, 0x00, 0x00, 0x00, 0x30, 0x00, 0x00, 0x00,
   0xa8, 0xfd, 0xff, 0xff, 0x21, 0x00, 0x00, 0x00, 0x73, 0x65, 0x71, 0x75,
   0x65, 0x6e, 0x74, 0x69, 0x61, 0x6c, 0x5f, 0x31, 0x2f, 0x63, 0x6f, 0x6e,
   0x76, 0x32, 0x64, 0x5f, 0x31, 0x2f, 0x63, 0x6f, 0x6e, 0x76, 0x6f, 0x6c,
   0x75, 0x74, 0x69, 0x6f, 0x6e, 0x00, 0x00, 0x00, 0x04, 0x00, 0x00, 0x00,
   0x04, 0x00, 0x00, 0x00, 0x03, 0x00, 0x00, 0x00, 0x03, 0x00, 0x00, 0x00,
   0x01, 0x00, 0x00, 0x00, 0x00, 0x00, 0x16, 0x00, 0x1c, 0x00, 0x18, 0x00,
   0x17, 0x00, 0x10, 0x00, 0x0c, 0x00, 0x08, 0x00, 0x00, 0x00, 0x00, 0x00,
   0x00, 0x00, 0x07, 0x00, 0x16, 0x00, 0x00, 0x00, 0x00, 0x00, 0x00, 0x01,
   0x14, 0x00, 0x00, 0x00, 0x14, 0x00, 0x00, 0x00, 0x08, 0x00, 0x00, 0x00,
   0x00, 0x00, 0x00, 0x02, 0x1c, 0x00, 0x00, 0x00, 0x1c, 0xfe, 0xff, 0xff,
   0x0f, 0x00, 0x00, 0x00, 0x61, 0x72, 0x69, 0x74, 0x68, 0x2e, 0x63, 0x6f,
   0x6e, 0x73, 0x74, 0x61, 0x6e, 0x74, 0x36, 0x00, 0x01, 0x00, 0x00, 0x00,
   0x02, 0x00, 0x00, 0x00, 0xd2, 0xfe, 0xff, 0xff, 0x00, 0x00, 0x00, 0x01,
   0x10, 0x00, 0x00, 0x00, 0x10, 0x00, 0x00, 0x00, 0x07, 0x00, 0x00, 0x00,
   0x1c, 0x00, 0x00, 0x00, 0x54, 0xfe, 0xff, 0xff, 0x0f, 0x00, 0x00, 0x00,
   0x61, 0x72, 0x69, 0x74, 0x68, 0x2e, 0x63, 0x6f, 0x6e, 0x73, 0x74, 0x61,
   0x6e, 0x74, 0x35, 0x00, 0x01, 0x00, 0x00, 0x00, 0x06, 0x00, 0x00, 0x00,
   0x0a, 0xff, 0xff, 0xff, 0x00, 0x00, 0x00, 0x01, 0x10, 0x00, 0x00, 0x00,
   0x10, 0x00, 0x00, 0x00, 0x06, 0x00, 0x00, 0x00, 0x1c, 0x00, 0x00, 0x00,
   0x8c, 0xfe, 0xff, 0xff, 0x0f, 0x00, 0x00, 0x00, 0x61, 0x72, 0x69, 0x74,
   0x68, 0x2e, 0x63, 0x6f, 0x6e, 0x73, 0x74, 0x61, 0x6e, 0x74, 0x34, 0x00,
   0x01, 0x00, 0x00, 0x00, 0x04, 0x00, 0x00, 0x00, 0x42, 0xff, 0xff, 0xff,
   0x00, 0x00, 0x00, 0x01, 0x10, 0x00, 0x00, 0x00, 0x10, 0x00, 0x00, 0x00,
   0x05, 0x00, 0x00, 0x00, 0x1c, 0x00, 0x00, 0x00, 0xc4, 0xfe, 0xff, 0xff,
   0x0f, 0x00, 0x00, 0x00, 0x61, 0x72, 0x69, 0x74, 0x68, 0x2e, 0x63, 0x6f,
   0x6e, 0x73, 0x74, 0x61, 0x6e, 0x74, 0x33, 0x00, 0x02, 0x00, 0x00, 0x00,
   0x04, 0x00, 0x00, 0x00, 0x18, 0x00, 0x00, 0x00, 0x7e, 0xff, 0xff, 0xff,
   0x00, 0x00, 0x00, 0x01, 0x10, 0x00, 0x00, 0x00, 0x10, 0x00, 0x00, 0x00,
   0x04, 0x00, 0x00, 0x00, 0x1c, 0x00, 0x00, 0x00, 0x00, 0xff, 0xff, 0xff,
   0x0f, 0x00, 0x00, 0x00, 0x61, 0x72, 0x69, 0x74, 0x68, 0x2e, 0x63, 0x6f,
   0x6e, 0x73, 0x74, 0x61, 0x6e, 0x74, 0x32, 0x00, 0x02, 0x00, 0x00, 0x00,
   0x06, 0x00, 0x00, 0x00, 0x04, 0x00, 0x00, 0x00, 0xba, 0xff, 0xff, 0xff,
   0x00, 0x00, 0x00, 0x01, 0x10, 0x00, 0x00, 0x00, 0x10, 0x00, 0x00, 0x00,
   0x03, 0x00, 0x00, 0x00, 0x1c, 0x00, 0x00, 0x00, 0x3c, 0xff, 0xff, 0xff,
   0x0f, 0x00, 0x00, 0x00, 0x61, 0x72, 0x69, 0x74, 0x68, 0x2e, 0x63, 0x6f,
   0x6e, 0x73, 0x74, 0x61, 0x6e, 0x74, 0x31, 0x00, 0x04, 0x00, 0x00, 0x00,
   0x04, 0x00, 0x00, 0x00, 0x03, 0x00, 0x00, 0x00, 0x03, 0x00, 0x00, 0x00,
   0x04, 0x00, 0x00, 0x00, 0x00, 0x00, 0x16, 0x00, 0x18, 0x00, 0x14, 0x00,
   0x00, 0x00, 0x10, 0x00, 0x0c, 0x00, 0x08, 0x00, 0x00, 0x00, 0x00, 0x00,
   0x00, 0x00, 0x07, 0x00, 0x16, 0x00, 0x00, 0x00, 0x00, 0x00, 0x00, 0x01,
   0x10, 0x00, 0x00, 0x00, 0x10, 0x00, 0x00, 0x00, 0x02, 0x00, 0x00, 0x00,
   0x1c, 0x00, 0x00, 0x00, 0x98, 0xff, 0xff, 0xff, 0x0e, 0x00, 0x00, 0x00,
   0x61, 0x72, 0x69, 0x74, 0x68, 0x2e, 0x63, 0x6f, 0x6e, 0x73, 0x74, 0x61,
   0x6e, 0x74, 0x00, 0x00, 0x01, 0x00, 0x00, 0x00, 0x04, 0x00, 0x00, 0x00,
   0x00, 0x00, 0x16, 0x00, 0x1c, 0x00, 0x18, 0x00, 0x00, 0x00, 0x14, 0x00,
   0x10, 0x00, 0x0c, 0x00, 0x00, 0x00, 0x00, 0x00, 0x08, 0x00, 0x07, 0x00,
   0x16, 0x00, 0x00, 0x00, 0x00, 0x00, 0x00, 0x01, 0x14, 0x00, 0x00, 0x00,
   0x28, 0x00, 0x00, 0x00, 0x28, 0x00, 0x00, 0x00, 0x01, 0x00, 0x00, 0x00,
   0x44, 0x00, 0x00, 0x00, 0x04, 0x00, 0x00, 0x00, 0xff, 0xff, 0xff, 0xff,
   0x10, 0x00, 0x00, 0x00, 0x14, 0x00, 0x00, 0x00, 0x01, 0x00, 0x00, 0x00,
   0x04, 0x00, 0x04, 0x00, 0x04, 0x00, 0x00, 0x00, 0x1e, 0x00, 0x00, 0x00,
   0x73, 0x65, 0x72, 0x76, 0x69, 0x6e, 0x67, 0x5f, 0x64, 0x65, 0x66, 0x61,
   0x75, 0x6c, 0x74, 0x5f, 0x6b, 0x65, 0x72, 0x61, 0x73, 0x5f, 0x74, 0x65,
   0x6e, 0x73, 0x6f, 0x72, 0x3a, 0x30, 0x00, 0x00, 0x04, 0x00, 0x00, 0x00,
   0x01, 0x00, 0x00, 0x00, 0x10, 0x00, 0x00, 0x00, 0x14, 0x00, 0x00, 0x00,
   0x01, 0x00, 0x00, 0x00, 0x05, 0x00, 0x00, 0x00, 0x50, 0x00, 0x00, 0x00,
   0x34, 0x00, 0x00, 0x00, 0x24, 0x00, 0x00, 0x00, 0x14, 0x00, 0x00, 0x00,
   0x04, 0x00, 0x00, 0x00, 0xd0, 0xff, 0xff, 0xff, 0x19, 0x00, 0x00, 0x00,
   0x00, 0x00, 0x00, 0x19, 0xdc, 0xff, 0xff, 0xff, 0x09, 0x00, 0x00, 0x00,
   0x00, 0x00, 0x00, 0x09, 0xe8, 0xff, 0xff, 0xff, 0x16, 0x00, 0x00, 0x00,
   0x00, 0x00, 0x00, 0x16, 0xf4, 0xff, 0xff, 0xff, 0x11, 0x00, 0x00, 0x00,
   0x00, 0x00, 0x00, 0x11, 0x0c, 0x00, 0x0c, 0x00, 0x0b, 0x00, 0x00, 0x00,
   0x00, 0x00, 0x04, 0x00, 0x0c, 0x00, 0x00, 0x00, 0x03, 0x00, 0x00, 0x00,
   0x00, 0x00, 0x00, 0x03
};

#endif //AUDIO_CLASSIFICATION_MODEL_H
