#ifndef AUDIO_CLASSIFICATION_MODEL_H
#define AUDIO_CLASSIFICATION_MODEL_H

const unsigned int audio_classification_model_len = 4624;
alignas(8) const unsigned char audio_classification_model[] = {
  0x1c, 0x00, 0x00, 0x00, 0x54, 0x46, 0x4c, 0x33, 0x14, 0x00, 0x20, 0x00,
   0x1c, 0x00, 0x18, 0x00, 0x14, 0x00, 0x10, 0x00, 0x0c, 0x00, 0x00, 0x00,
   0x08, 0x00, 0x04, 0x00, 0x14, 0x00, 0x00, 0x00, 0x1c, 0x00, 0x00, 0x00,
   0x8c, 0x00, 0x00, 0x00, 0xe4, 0x00, 0x00, 0x00, 0x54, 0x07, 0x00, 0x00,
   0x64, 0x07, 0x00, 0x00, 0x7c, 0x11, 0x00, 0x00, 0x03, 0x00, 0x00, 0x00,
   0x01, 0x00, 0x00, 0x00, 0x04, 0x00, 0x00, 0x00, 0xa2, 0xf7, 0xff, 0xff,
   0x0c, 0x00, 0x00, 0x00, 0x1c, 0x00, 0x00, 0x00, 0x3c, 0x00, 0x00, 0x00,
   0x0f, 0x00, 0x00, 0x00, 0x73, 0x65, 0x72, 0x76, 0x69, 0x6e, 0x67, 0x5f,
   0x64, 0x65, 0x66, 0x61, 0x75, 0x6c, 0x74, 0x00, 0x01, 0x00, 0x00, 0x00,
   0x04, 0x00, 0x00, 0x00, 0x90, 0xff, 0xff, 0xff, 0x11, 0x00, 0x00, 0x00,
   0x04, 0x00, 0x00, 0x00, 0x08, 0x00, 0x00, 0x00, 0x6f, 0x75, 0x74, 0x70,
   0x75, 0x74, 0x5f, 0x30, 0x00, 0x00, 0x00, 0x00, 0x01, 0x00, 0x00, 0x00,
   0x04, 0x00, 0x00, 0x00, 0x86, 0xf8, 0xff, 0xff, 0x04, 0x00, 0x00, 0x00,
   0x0c, 0x00, 0x00, 0x00, 0x6b, 0x65, 0x72, 0x61, 0x73, 0x5f, 0x74, 0x65,
   0x6e, 0x73, 0x6f, 0x72, 0x00, 0x00, 0x00, 0x00, 0x02, 0x00, 0x00, 0x00,
   0x34, 0x00, 0x00, 0x00, 0x04, 0x00, 0x00, 0x00, 0xdc, 0xff, 0xff, 0xff,
   0x14, 0x00, 0x00, 0x00, 0x04, 0x00, 0x00, 0x00, 0x13, 0x00, 0x00, 0x00,
   0x43, 0x4f, 0x4e, 0x56, 0x45, 0x52, 0x53, 0x49, 0x4f, 0x4e, 0x5f, 0x4d,
   0x45, 0x54, 0x41, 0x44, 0x41, 0x54, 0x41, 0x00, 0x08, 0x00, 0x0c, 0x00,
   0x08, 0x00, 0x04, 0x00, 0x08, 0x00, 0x00, 0x00, 0x13, 0x00, 0x00, 0x00,
   0x04, 0x00, 0x00, 0x00, 0x13, 0x00, 0x00, 0x00, 0x6d, 0x69, 0x6e, 0x5f,
   0x72, 0x75, 0x6e, 0x74, 0x69, 0x6d, 0x65, 0x5f, 0x76, 0x65, 0x72, 0x73,
   0x69, 0x6f, 0x6e, 0x00, 0x15, 0x00, 0x00, 0x00, 0x6c, 0x06, 0x00, 0x00,
   0x64, 0x06, 0x00, 0x00, 0x44, 0x06, 0x00, 0x00, 0xf4, 0x03, 0x00, 0x00,
   0x84, 0x03, 0x00, 0x00, 0xf4, 0x01, 0x00, 0x00, 0xd4, 0x01, 0x00, 0x00,
   0xac, 0x01, 0x00, 0x00, 0x94, 0x01, 0x00, 0x00, 0xf4, 0x00, 0x00, 0x00,
   0xd4, 0x00, 0x00, 0x00, 0xcc, 0x00, 0x00, 0x00, 0xc4, 0x00, 0x00, 0x00,
   0xbc, 0x00, 0x00, 0x00, 0xb4, 0x00, 0x00, 0x00, 0xac, 0x00, 0x00, 0x00,
   0xa4, 0x00, 0x00, 0x00, 0x9c, 0x00, 0x00, 0x00, 0x94, 0x00, 0x00, 0x00,
   0x74, 0x00, 0x00, 0x00, 0x04, 0x00, 0x00, 0x00, 0x56, 0xf9, 0xff, 0xff,
   0x04, 0x00, 0x00, 0x00, 0x60, 0x00, 0x00, 0x00, 0x0c, 0x00, 0x00, 0x00,
   0x08, 0x00, 0x0e, 0x00, 0x08, 0x00, 0x04, 0x00, 0x08, 0x00, 0x00, 0x00,
   0x10, 0x00, 0x00, 0x00, 0x28, 0x00, 0x00, 0x00, 0x00, 0x00, 0x06, 0x00,
   0x08, 0x00, 0x04, 0x00, 0x06, 0x00, 0x00, 0x00, 0x04, 0x00, 0x00, 0x00,
   0x01, 0x00, 0x00, 0x00, 0xea, 0x03, 0x00, 0x00, 0x0c, 0x00, 0x18, 0x00,
   0x14, 0x00, 0x10, 0x00, 0x0c, 0x00, 0x04, 0x00, 0x0c, 0x00, 0x00, 0x00,
   0x81, 0xf3, 0x13, 0x9d, 0x31, 0x5a, 0x66, 0x7b, 0x02, 0x00, 0x00, 0x00,
   0x02, 0x00, 0x00, 0x00, 0x04, 0x00, 0x00, 0x00, 0x06, 0x00, 0x00, 0x00,
   0x32, 0x2e, 0x31, 0x37, 0x2e, 0x30, 0x00, 0x00, 0xc2, 0xf9, 0xff, 0xff,
   0x04, 0x00, 0x00, 0x00, 0x10, 0x00, 0x00, 0x00, 0x31, 0x2e, 0x35, 0x2e,
   0x30, 0x00, 0x00, 0x00, 0x00, 0x00, 0x00, 0x00, 0x00, 0x00, 0x00, 0x00,
   0x7c, 0xf0, 0xff, 0xff, 0x80, 0xf0, 0xff, 0xff, 0x84, 0xf0, 0xff, 0xff,
   0x88, 0xf0, 0xff, 0xff, 0x8c, 0xf0, 0xff, 0xff, 0x90, 0xf0, 0xff, 0xff,
   0x94, 0xf0, 0xff, 0xff, 0x98, 0xf0, 0xff, 0xff, 0xfe, 0xf9, 0xff, 0xff,
   0x04, 0x00, 0x00, 0x00, 0x10, 0x00, 0x00, 0x00, 0xa3, 0x93, 0x6f, 0xbd,
   0x9c, 0x8a, 0x1b, 0xbe, 0xed, 0x40, 0x06, 0x3f, 0xfb, 0x81, 0x24, 0x3f,
   0x1a, 0xfa, 0xff, 0xff, 0x04, 0x00, 0x00, 0x00, 0x90, 0x00, 0x00, 0x00,
   0x3f, 0x13, 0x8d, 0x3c, 0x82, 0x44, 0xd4, 0xbe, 0xeb, 0xc0, 0xea, 0x3c,
   0x40, 0xc2, 0x0a, 0xbf, 0x22, 0x77, 0xf9, 0x3c, 0xe2, 0xf0, 0xd1, 0xbe,
   0xda, 0x9d, 0xb5, 0x3e, 0xe2, 0x6f, 0x05, 0x3e, 0x21, 0x44, 0x09, 0x3f,
   0x6a, 0x9f, 0x04, 0x3e, 0x50, 0xfd, 0xa2, 0xbe, 0x48, 0x9c, 0xc0, 0xbe,
   0x81, 0x99, 0x1b, 0x3f, 0x10, 0xeb, 0x93, 0x3e, 0x77, 0xa2, 0x4e, 0xbe,
   0x54, 0x4d, 0xcf, 0xbd, 0x84, 0x28, 0x8f, 0xbc, 0x1e, 0xdc, 0x63, 0xbb,
   0x40, 0x82, 0xbc, 0x3e, 0xd9, 0x41, 0xe4, 0x3e, 0x30, 0x49, 0xf2, 0xbd,
   0xb7, 0xaa, 0x3b, 0xbe, 0xe6, 0x34, 0x36, 0xbe, 0xe4, 0xe8, 0x03, 0xbf,
   0x6c, 0x45, 0x23, 0xbe, 0x54, 0xf5, 0xd6, 0x3d, 0x9a, 0xfc, 0x82, 0xbe,
   0x04, 0x05, 0x15, 0xbe, 0x6a, 0x41, 0x03, 0x3e, 0x0f, 0xbf, 0x28, 0x3a,
   0xa3, 0xbc, 0xaa, 0x3d, 0x4e, 0x3d, 0x17, 0x3f, 0xed, 0x45, 0xdd, 0x3e,
   0x87, 0xa3, 0x76, 0xbe, 0xe6, 0x5f, 0xff, 0xbe, 0x99, 0xcf, 0xb5, 0xbe,
   0xb6, 0xfa, 0xff, 0xff, 0x04, 0x00, 0x00, 0x00, 0x08, 0x00, 0x00, 0x00,
   0xff, 0xff, 0xff, 0xff, 0x18, 0x00, 0x00, 0x00, 0xca, 0xfa, 0xff, 0xff,
   0x04, 0x00, 0x00, 0x00, 0x18, 0x00, 0x00, 0x00, 0xac, 0xa9, 0x02, 0x3f,
   0xf4, 0xb6, 0x15, 0x3f, 0xd5, 0x58, 0xa3, 0xbe, 0x22, 0x13, 0xe1, 0xbe,
   0xd8, 0x50, 0x3d, 0xbe, 0x4c, 0xef, 0x20, 0xbf, 0xee, 0xfa, 0xff, 0xff,
   0x04, 0x00, 0x00, 0x00, 0x10, 0x00, 0x00, 0x00, 0x35, 0xd2, 0x9a, 0x3e,
   0x24, 0x72, 0x96, 0xbe, 0xd9, 0x13, 0x37, 0x3e, 0xb0, 0xc8, 0x3c, 0x3e,
   0x0a, 0xfb, 0xff, 0xff, 0x04, 0x00, 0x00, 0x00, 0x80, 0x01, 0x00, 0x00,
   0x9b, 0xfa, 0xc4, 0x3e, 0x8e, 0x5c, 0xab, 0x3e, 0xa4, 0x08, 0xb8, 0x3e,
   0x5d, 0x56, 0xc0, 0x3e, 0x69, 0x50, 0x67, 0x3e, 0x87, 0xdf, 0x70, 0xbe,
   0x9a, 0x16, 0x25, 0x3e, 0x96, 0x44, 0xe8, 0x3e, 0x79, 0x25, 0xbd, 0x3d,
   0xaf, 0x6b, 0x00, 0x3f, 0x71, 0xa0, 0x3d, 0x3e, 0x8d, 0x62, 0x55, 0x3f,
   0xbe, 0xf5, 0x5c, 0xbe, 0xf1, 0x7d, 0x87, 0xbe, 0x2c, 0xc3, 0x33, 0xbe,
   0x3a, 0x1f, 0x1e, 0x3f, 0x4f, 0xcc, 0xd6, 0x3e, 0x7b, 0xfb, 0xc8, 0x3e,
   0x9e, 0xdc, 0x83, 0xbe, 0x31, 0x92, 0x1a, 0x3e, 0xe9, 0x31, 0xdd, 0x3e,
   0x2a, 0x91, 0x97, 0x3c, 0x90, 0x81, 0x20, 0xbf, 0x7c, 0xd6, 0x12, 0x3f,
   0x5f, 0xa0, 0xca, 0xbe, 0x44, 0xad, 0x55, 0xbf, 0xd4, 0xb8, 0xb4, 0xbe,
   0x59, 0x14, 0xf4, 0x3e, 0x02, 0xfc, 0x28, 0xbe, 0x53, 0xdc, 0x39, 0xbf,
   0xa2, 0x52, 0xfe, 0xbd, 0xf8, 0x9e, 0x01, 0x3f, 0xd1, 0x88, 0xef, 0xbe,
   0xb4, 0xbb, 0x69, 0xbf, 0xfe, 0x0e, 0x9c, 0xbe, 0x8e, 0xac, 0x5b, 0x3e,
   0x5d, 0x4a, 0x17, 0x3f, 0x64, 0xda, 0x05, 0x3f, 0x84, 0xc9, 0xba, 0x3d,
   0x57, 0x1a, 0x3c, 0xbe, 0x07, 0xb4, 0x05, 0x3f, 0x39, 0xe2, 0xbc, 0x3e,
   0x9d, 0x99, 0x8f, 0x3e, 0x19, 0x2f, 0x21, 0xbf, 0xb6, 0xcb, 0x1c, 0x3f,
   0x4e, 0x92, 0xcc, 0x3e, 0x95, 0xb4, 0x15, 0xbb, 0x0b, 0x53, 0xb7, 0x3c,
   0xec, 0x0d, 0xa5, 0x3e, 0x7c, 0x85, 0xc7, 0xbd, 0xd4, 0x44, 0x98, 0xbe,
   0x9f, 0x08, 0xb4, 0xbe, 0xae, 0x84, 0x81, 0x3e, 0xaf, 0x3c, 0x86, 0xbd,
   0x8e, 0x06, 0x42, 0xbe, 0x10, 0x94, 0x8b, 0xbe, 0x44, 0xc5, 0x1f, 0xbd,
   0xa5, 0x31, 0x7b, 0x3d, 0xde, 0x60, 0xe7, 0xbe, 0x75, 0x56, 0xb4, 0xbe,
   0x80, 0x6f, 0x92, 0xbe, 0x1f, 0xc3, 0x59, 0x3f, 0xac, 0x4b, 0x27, 0x3f,
   0x03, 0xdb, 0xe2, 0x3d, 0x65, 0x0a, 0x7e, 0xbe, 0x96, 0xfd, 0x4e, 0x3f,
   0x25, 0x3e, 0x7f, 0x3e, 0xf8, 0xf3, 0xe1, 0x3c, 0x93, 0xff, 0x44, 0x3e,
   0x64, 0x34, 0x33, 0x3f, 0x2e, 0x63, 0x06, 0x3f, 0x1d, 0xed, 0x2c, 0xbe,
   0x09, 0xd6, 0x30, 0xbf, 0x18, 0x02, 0x08, 0xbf, 0x77, 0x62, 0x0c, 0x3e,
   0x90, 0x83, 0xfc, 0xbe, 0xbd, 0x17, 0x80, 0xbd, 0xff, 0xb7, 0x3f, 0xbe,
   0x7c, 0x8d, 0x7d, 0xbe, 0x9e, 0x7b, 0x46, 0xba, 0xb9, 0x76, 0x52, 0xbf,
   0x73, 0x7b, 0x49, 0xbf, 0xf5, 0x38, 0x65, 0x3e, 0xe6, 0xff, 0x33, 0xbf,
   0xe3, 0x44, 0x50, 0x3f, 0x34, 0x59, 0xbd, 0xbe, 0x59, 0x9e, 0xd4, 0x3e,
   0x4d, 0x16, 0x25, 0x3f, 0x12, 0x66, 0x26, 0x3c, 0x00, 0x23, 0xba, 0x3e,
   0x3b, 0xd4, 0x62, 0x3d, 0xb0, 0x04, 0xd4, 0x3e, 0xa6, 0x12, 0x1d, 0x3f,
   0x24, 0xb4, 0x47, 0x3e, 0x69, 0xfd, 0xa3, 0x3e, 0xfd, 0x55, 0x8d, 0x3e,
   0x96, 0xfc, 0xff, 0xff, 0x04, 0x00, 0x00, 0x00, 0x60, 0x00, 0x00, 0x00,
   0x7f, 0xf1, 0x34, 0xbf, 0x00, 0x15, 0xac, 0x3c, 0x6f, 0xdc, 0xab, 0xbf,
   0x77, 0xb5, 0x53, 0x3f, 0xc9, 0x41, 0x01, 0x3e, 0x94, 0x57, 0x9b, 0xbf,
   0xdb, 0x43, 0x31, 0x3f, 0xeb, 0x58, 0x42, 0xbf, 0xff, 0xf8, 0x2a, 0xbf,
   0x67, 0x21, 0x7f, 0xbf, 0x7d, 0x61, 0x35, 0x3f, 0x72, 0x7f, 0x6c, 0x3e,
   0xa6, 0x11, 0x2d, 0x3f, 0xf8, 0x04, 0x69, 0xbf, 0x39, 0x00, 0x8d, 0xbf,
   0x25, 0xf6, 0xe2, 0xbf, 0x7a, 0x9f, 0x57, 0x3d, 0xe7, 0xa3, 0xa0, 0x3f,
   0x57, 0x0d, 0xe7, 0xbe, 0x15, 0xef, 0xe3, 0xbe, 0xa3, 0xfa, 0x9e, 0xbf,
   0x2e, 0x18, 0x8e, 0x3f, 0x9b, 0x29, 0x04, 0x3f, 0xa5, 0x9e, 0x6a, 0x3e,
   0x02, 0xfd, 0xff, 0xff, 0x04, 0x00, 0x00, 0x00, 0x40, 0x02, 0x00, 0x00,
   0x07, 0xe9, 0x88, 0xbe, 0xc0, 0x16, 0x21, 0x3f, 0x82, 0x91, 0x86, 0x3e,
   0x01, 0x74, 0x27, 0x3f, 0x49, 0x33, 0xbe, 0xbe, 0x0f, 0x54, 0x09, 0x3f,
   0x96, 0x12, 0x1d, 0x3e, 0x12, 0x9e, 0x39, 0x3f, 0xc5, 0x3e, 0xfd, 0xbd,
   0xbc, 0xdf, 0x41, 0xbe, 0xa2, 0x76, 0x94, 0x3e, 0x9d, 0x85, 0x1c, 0x3f,
   0x7d, 0x3e, 0x7b, 0xbe, 0xd9, 0x01, 0x58, 0x3f, 0xac, 0x84, 0x14, 0xbe,
   0xe2, 0x00, 0xb1, 0x3e, 0x2e, 0xbe, 0xcf, 0xbe, 0x50, 0xe3, 0x12, 0x3e,
   0x2a, 0x14, 0x3e, 0x3d, 0x85, 0x4e, 0x18, 0x3f, 0x5d, 0x15, 0x33, 0xbf,
   0x90, 0xb2, 0xc0, 0x3e, 0xd2, 0x4e, 0x82, 0xbd, 0x38, 0xe9, 0xf1, 0x3e,
   0xcf, 0xda, 0xbf, 0xbe, 0xe7, 0x0a, 0x6e, 0xbf, 0xf1, 0x63, 0x5e, 0xbe,
   0x51, 0x8f, 0x1c, 0x3e, 0xfd, 0x32, 0xe0, 0xbd, 0xdf, 0xa2, 0xae, 0x3c,
   0x39, 0x6d, 0x01, 0xbe, 0x1f, 0x80, 0x01, 0x3f, 0xe2, 0xf1, 0x7b, 0xbe,
   0x9b, 0x88, 0xc5, 0xbd, 0x42, 0xa6, 0x23, 0x3b, 0x03, 0xd2, 0x82, 0xbd,
   0x3c, 0x9b, 0x6f, 0xbf, 0xd6, 0x44, 0x07, 0xbd, 0x56, 0x83, 0xc9, 0x3e,
   0x46, 0x44, 0xea, 0x3e, 0xa8, 0x30, 0x64, 0xbe, 0x8a, 0x8f, 0x6a, 0xbd,
   0x53, 0xaf, 0x4f, 0x3e, 0x36, 0x8c, 0x24, 0x3e, 0xda, 0x76, 0x98, 0xbe,
   0xdf, 0x81, 0xc4, 0xbe, 0xc1, 0x0e, 0xb7, 0x3c, 0x19, 0x7a, 0xa6, 0x3e,
   0xe5, 0x2e, 0xe7, 0xbe, 0x46, 0xc7, 0x8c, 0xbe, 0x98, 0x3d, 0xc5, 0x3d,
   0x11, 0x8a, 0x2f, 0x3f, 0x55, 0x73, 0xf7, 0xbe, 0x04, 0x68, 0x1a, 0xbe,
   0x24, 0x78, 0x11, 0x3e, 0x67, 0x2c, 0x0c, 0x3e, 0x49, 0x9b, 0xf8, 0xbe,
   0xa0, 0x1f, 0x49, 0xbc, 0x3f, 0x79, 0x01, 0xbd, 0x68, 0x79, 0x26, 0x3f,
   0xc3, 0x23, 0x0f, 0x3e, 0xa5, 0xe9, 0xc5, 0xbe, 0xa7, 0xcf, 0x0b, 0xbe,
   0xf2, 0x99, 0x8c, 0xbd, 0xef, 0xee, 0xaf, 0x3d, 0xcb, 0xf0, 0x94, 0x3d,
   0x04, 0x9e, 0x23, 0xbd, 0x0d, 0x73, 0xc9, 0xbe, 0xc1, 0x6c, 0x66, 0x3d,
   0xd3, 0xe1, 0x25, 0x3e, 0x82, 0xc4, 0x82, 0x3e, 0x6e, 0x52, 0xe7, 0xbe,
   0x33, 0x59, 0x38, 0x3e, 0x14, 0x20, 0xe8, 0x3e, 0x10, 0x5e, 0xa8, 0x3e,
   0x21, 0x65, 0x87, 0xbe, 0xde, 0x3c, 0xc6, 0x3e, 0x19, 0xa5, 0x14, 0x3f,
   0xa7, 0x81, 0x1e, 0x3f, 0xbb, 0x3b, 0x82, 0xbe, 0x22, 0xc9, 0x1a, 0x3f,
   0x4e, 0xcf, 0x53, 0xbd, 0xd0, 0x3d, 0xba, 0x3e, 0x6b, 0xd7, 0x8e, 0xbe,
   0x0a, 0x9e, 0xa4, 0xbd, 0xfb, 0xa8, 0xdc, 0x3e, 0xd6, 0x9a, 0xf1, 0x3d,
   0xe5, 0x42, 0x4f, 0x3e, 0x8d, 0x64, 0x35, 0x3e, 0xd9, 0xf7, 0xb3, 0x3e,
   0x8a, 0x23, 0x5d, 0x3e, 0x59, 0x1a, 0x33, 0x3e, 0x4b, 0x34, 0xfb, 0x3d,
   0xc7, 0xc4, 0x0f, 0x3e, 0xf6, 0x94, 0x17, 0x3d, 0x24, 0x5e, 0x2a, 0x3e,
   0xd6, 0x75, 0x70, 0x3d, 0x0b, 0xd6, 0x3b, 0xbe, 0xb6, 0xc6, 0x5b, 0xbe,
   0x41, 0x74, 0x55, 0x3e, 0xf0, 0x2a, 0x3d, 0x3e, 0xfa, 0xd9, 0x6e, 0x3e,
   0xf9, 0xd2, 0x5b, 0xbe, 0x7d, 0xaa, 0xe6, 0x3e, 0x61, 0x7e, 0x5f, 0x3d,
   0x87, 0xf8, 0xac, 0x3e, 0x28, 0x4f, 0x89, 0x3e, 0x4e, 0x11, 0x16, 0x3f,
   0x94, 0x2e, 0xb6, 0xbd, 0x1f, 0x64, 0x75, 0x3e, 0x3c, 0xf7, 0xa0, 0x3e,
   0x42, 0xeb, 0xef, 0x3d, 0xe8, 0x20, 0x02, 0x3e, 0x22, 0xda, 0xaf, 0x3e,
   0xb9, 0x29, 0xe6, 0x3e, 0xe4, 0xdc, 0x9b, 0x3e, 0xaa, 0x72, 0xd8, 0x3d,
   0x68, 0xfb, 0xe6, 0x3e, 0xf7, 0x36, 0x0c, 0x3e, 0xa1, 0x9f, 0x10, 0x3f,
   0xe3, 0xe7, 0x5e, 0xbf, 0x2a, 0xc4, 0x09, 0xbe, 0x98, 0x29, 0x9f, 0x3e,
   0x47, 0x54, 0xa3, 0xbe, 0xc1, 0x02, 0x4f, 0xbf, 0x77, 0xa9, 0x43, 0x3e,
   0x35, 0xe4, 0x6c, 0x3e, 0x9b, 0x67, 0x1a, 0xbe, 0x3d, 0x2d, 0x3c, 0xbf,
   0xb8, 0x9c, 0x42, 0xbd, 0xfe, 0x0e, 0xc3, 0xbd, 0x49, 0x7c, 0xfb, 0x3b,
   0x46, 0xff, 0x3e, 0xbe, 0xbd, 0xa8, 0xb9, 0xbe, 0xc0, 0xd0, 0x00, 0x3f,
   0xdd, 0xd9, 0x34, 0xbe, 0xd1, 0xc4, 0x84, 0x3d, 0xc7, 0xf3, 0x6d, 0xbd,
   0xa4, 0x09, 0x1e, 0x3d, 0x26, 0xbf, 0xce, 0xbe, 0xa1, 0x67, 0xef, 0xbc,
   0xc5, 0x78, 0xf5, 0xbc, 0xab, 0x48, 0x9f, 0x3e, 0xf1, 0x85, 0x34, 0xbe,
   0x4e, 0xff, 0xff, 0xff, 0x04, 0x00, 0x00, 0x00, 0x10, 0x00, 0x00, 0x00,
   0xb1, 0xda, 0x89, 0x3e, 0x36, 0x30, 0x69, 0x3e, 0x3d, 0x1d, 0xf9, 0x3c,
   0xb6, 0x4c, 0x44, 0x3e, 0x08, 0xf6, 0xff, 0xff, 0x0c, 0xf6, 0xff, 0xff,
   0x0f, 0x00, 0x00, 0x00, 0x4d, 0x4c, 0x49, 0x52, 0x20, 0x43, 0x6f, 0x6e,
   0x76, 0x65, 0x72, 0x74, 0x65, 0x64, 0x2e, 0x00, 0x01, 0x00, 0x00, 0x00,
   0x14, 0x00, 0x00, 0x00, 0x00, 0x00, 0x0e, 0x00, 0x18, 0x00, 0x14, 0x00,
   0x10, 0x00, 0x0c, 0x00, 0x08, 0x00, 0x04, 0x00, 0x0e, 0x00, 0x00, 0x00,
   0x14, 0x00, 0x00, 0x00, 0x1c, 0x00, 0x00, 0x00, 0x54, 0x02, 0x00, 0x00,
   0x58, 0x02, 0x00, 0x00, 0x5c, 0x02, 0x00, 0x00, 0x04, 0x00, 0x00, 0x00,
   0x6d, 0x61, 0x69, 0x6e, 0x00, 0x00, 0x00, 0x00, 0x08, 0x00, 0x00, 0x00,
   0xec, 0x01, 0x00, 0x00, 0x88, 0x01, 0x00, 0x00, 0x34, 0x01, 0x00, 0x00,
   0xf0, 0x00, 0x00, 0x00, 0xc8, 0x00, 0x00, 0x00, 0x78, 0x00, 0x00, 0x00,
   0x40, 0x00, 0x00, 0x00, 0x04, 0x00, 0x00, 0x00, 0xa2, 0xfe, 0xff, 0xff,
   0x1c, 0x00, 0x00, 0x00, 0x00, 0x00, 0x00, 0x09, 0x1c, 0x00, 0x00, 0x00,
   0x20, 0x00, 0x00, 0x00, 0x04, 0x00, 0x00, 0x00, 0x00, 0x00, 0x06, 0x00,
   0x08, 0x00, 0x04, 0x00, 0x06, 0x00, 0x00, 0x00, 0x00, 0x00, 0x80, 0x3f,
   0x01, 0x00, 0x00, 0x00, 0x11, 0x00, 0x00, 0x00, 0x01, 0x00, 0x00, 0x00,
   0x10, 0x00, 0x00, 0x00, 0xda, 0xfe, 0xff, 0xff, 0x14, 0x00, 0x00, 0x00,
   0x00, 0x00, 0x00, 0x08, 0x10, 0x00, 0x00, 0x00, 0x14, 0x00, 0x00, 0x00,
   0x03, 0x00, 0x00, 0x00, 0xd4, 0xf6, 0xff, 0xff, 0x01, 0x00, 0x00, 0x00,
   0x10, 0x00, 0x00, 0x00, 0x03, 0x00, 0x00, 0x00, 0x0f, 0x00, 0x00, 0x00,
   0x03, 0x00, 0x00, 0x00, 0x06, 0x00, 0x00, 0x00, 0x0e, 0xff, 0xff, 0xff,
   0x1c, 0x00, 0x00, 0x00, 0x00, 0x00, 0x00, 0x08, 0x1c, 0x00, 0x00, 0x00,
   0x20, 0x00, 0x00, 0x00, 0x03, 0x00, 0x00, 0x00, 0x00, 0x00, 0x06, 0x00,
   0x08, 0x00, 0x07, 0x00, 0x06, 0x00, 0x00, 0x00, 0x00, 0x00, 0x00, 0x01,
   0x01, 0x00, 0x00, 0x00, 0x0f, 0x00, 0x00, 0x00, 0x03, 0x00, 0x00, 0x00,
   0x0e, 0x00, 0x00, 0x00, 0x04, 0x00, 0x00, 0x00, 0x05, 0x00, 0x00, 0x00,
   0x00, 0x00, 0x0a, 0x00, 0x10, 0x00, 0x0c, 0x00, 0x08, 0x00, 0x04, 0x00,
   0x0a, 0x00, 0x00, 0x00, 0x0c, 0x00, 0x00, 0x00, 0x10, 0x00, 0x00, 0x00,
   0x02, 0x00, 0x00, 0x00, 0x01, 0x00, 0x00, 0x00, 0x0e, 0x00, 0x00, 0x00,
   0x02, 0x00, 0x00, 0x00, 0x0d, 0x00, 0x00, 0x00, 0x07, 0x00, 0x00, 0x00,
   0x7e, 0xff, 0xff, 0xff, 0x14, 0x00, 0x00, 0x00, 0x00, 0x00, 0x00, 0x05,
   0x24, 0x00, 0x00, 0x00, 0x28, 0x00, 0x00, 0x00, 0x01, 0x00, 0x00, 0x00,
   0x6e, 0xff, 0xff, 0xff, 0x02, 0x00, 0x00, 0x00, 0x02, 0x00, 0x00, 0x00,
   0x02, 0x00, 0x00, 0x00, 0x02, 0x00, 0x00, 0x00, 0x00, 0x00, 0x00, 0x01,
   0x01, 0x00, 0x00, 0x00, 0x0d, 0x00, 0x00, 0x00, 0x01, 0x00, 0x00, 0x00,
   0x0c, 0x00, 0x00, 0x00, 0x5e, 0xff, 0xff, 0xff, 0x10, 0x00, 0x00, 0x00,
   0x00, 0x00, 0x00, 0x01, 0x1c, 0x00, 0x00, 0x00, 0x20, 0x00, 0x00, 0x00,
   0x50, 0xff, 0xff, 0xff, 0x00, 0x00, 0x00, 0x01, 0x01, 0x00, 0x00, 0x00,
   0x01, 0x00, 0x00, 0x00, 0x00, 0x00, 0x00, 0x01, 0x01, 0x00, 0x00, 0x00,
   0x0c, 0x00, 0x00, 0x00, 0x03, 0x00, 0x00, 0x00, 0x0b, 0x00, 0x00, 0x00,
   0x02, 0x00, 0x00, 0x00, 0x01, 0x00, 0x00, 0x00, 0x00, 0x00, 0x0e, 0x00,
   0x1a, 0x00, 0x14, 0x00, 0x10, 0x00, 0x0c, 0x00, 0x0b, 0x00, 0x04, 0x00,
   0x0e, 0x00, 0x00, 0x00, 0x24, 0x00, 0x00, 0x00, 0x00, 0x00, 0x00, 0x05,
   0x34, 0x00, 0x00, 0x00, 0x38, 0x00, 0x00, 0x00, 0x01, 0x00, 0x00, 0x00,
   0x00, 0x00, 0x0e, 0x00, 0x18, 0x00, 0x17, 0x00, 0x10, 0x00, 0x0c, 0x00,
   0x08, 0x00, 0x04, 0x00, 0x0e, 0x00, 0x00, 0x00, 0x02, 0x00, 0x00, 0x00,
   0x02, 0x00, 0x00, 0x00, 0x02, 0x00, 0x00, 0x00, 0x02, 0x00, 0x00, 0x00,
   0x00, 0x00, 0x00, 0x01, 0x01, 0x00, 0x00, 0x00, 0x0b, 0x00, 0x00, 0x00,
   0x01, 0x00, 0x00, 0x00, 0x0a, 0x00, 0x00, 0x00, 0x00, 0x00, 0x0e, 0x00,
   0x14, 0x00, 0x00, 0x00, 0x10, 0x00, 0x0c, 0x00, 0x0b, 0x00, 0x04, 0x00,
   0x0e, 0x00, 0x00, 0x00, 0x1c, 0x00, 0x00, 0x00, 0x00, 0x00, 0x00, 0x01,
   0x28, 0x00, 0x00, 0x00, 0x2c, 0x00, 0x00, 0x00, 0x0c, 0x00, 0x14, 0x00,
   0x13, 0x00, 0x0c, 0x00, 0x08, 0x00, 0x07, 0x00, 0x0c, 0x00, 0x00, 0x00,
   0x00, 0x00, 0x00, 0x01, 0x01, 0x00, 0x00, 0x00, 0x01, 0x00, 0x00, 0x00,
   0x00, 0x00, 0x00, 0x01, 0x01, 0x00, 0x00, 0x00, 0x0a, 0x00, 0x00, 0x00,
   0x03, 0x00, 0x00, 0x00, 0x00, 0x00, 0x00, 0x00, 0x08, 0x00, 0x00, 0x00,
   0x09, 0x00, 0x00, 0x00, 0x01, 0x00, 0x00, 0x00, 0x11, 0x00, 0x00, 0x00,
   0x01, 0x00, 0x00, 0x00, 0x00, 0x00, 0x00, 0x00, 0x12, 0x00, 0x00, 0x00,
   0x20, 0x07, 0x00, 0x00, 0xcc, 0x06, 0x00, 0x00, 0x6c, 0x06, 0x00, 0x00,
   0x2c, 0x06, 0x00, 0x00, 0xec, 0x05, 0x00, 0x00, 0xb0, 0x05, 0x00, 0x00,
   0x74, 0x05, 0x00, 0x00, 0x34, 0x05, 0x00, 0x00, 0xc0, 0x04, 0x00, 0x00,
   0x3c, 0x04, 0x00, 0x00, 0x90, 0x03, 0x00, 0x00, 0x18, 0x03, 0x00, 0x00,
   0x48, 0x02, 0x00, 0x00, 0xcc, 0x01, 0x00, 0x00, 0x6c, 0x01, 0x00, 0x00,
   0xdc, 0x00, 0x00, 0x00, 0x60, 0x00, 0x00, 0x00, 0x04, 0x00, 0x00, 0x00,
   0x3e, 0xf9, 0xff, 0xff, 0x00, 0x00, 0x00, 0x01, 0x14, 0x00, 0x00, 0x00,
   0x1c, 0x00, 0x00, 0x00, 0x1c, 0x00, 0x00, 0x00, 0x12, 0x00, 0x00, 0x00,
   0x34, 0x00, 0x00, 0x00, 0x02, 0x00, 0x00, 0x00, 0xff, 0xff, 0xff, 0xff,
   0x06, 0x00, 0x00, 0x00, 0x20, 0xf9, 0xff, 0xff, 0x1b, 0x00, 0x00, 0x00,
   0x53, 0x74, 0x61, 0x74, 0x65, 0x66, 0x75, 0x6c, 0x50, 0x61, 0x72, 0x74,
   0x69, 0x74, 0x69, 0x6f, 0x6e, 0x65, 0x64, 0x43, 0x61, 0x6c, 0x6c, 0x5f,
   0x31, 0x3a, 0x30, 0x00, 0x02, 0x00, 0x00, 0x00, 0x01, 0x00, 0x00, 0x00,
   0x06, 0x00, 0x00, 0x00, 0x96, 0xf9, 0xff, 0xff, 0x00, 0x00, 0x00, 0x01,
   0x14, 0x00, 0x00, 0x00, 0x1c, 0x00, 0x00, 0x00, 0x1c, 0x00, 0x00, 0x00,
   0x11, 0x00, 0x00, 0x00, 0x54, 0x00, 0x00, 0x00, 0x02, 0x00, 0x00, 0x00,
   0xff, 0xff, 0xff, 0xff, 0x06, 0x00, 0x00, 0x00, 0x78, 0xf9, 0xff, 0xff,
   0x38, 0x00, 0x00, 0x00, 0x73, 0x65, 0x71, 0x75, 0x65, 0x6e, 0x74, 0x69,
   0x61, 0x6c, 0x5f, 0x31, 0x2f, 0x64, 0x65, 0x6e, 0x73, 0x65, 0x5f, 0x31,
   0x5f, 0x32, 0x2f, 0x4d, 0x61, 0x74, 0x4d, 0x75, 0x6c, 0x3b, 0x73, 0x65,
   0x71, 0x75, 0x65, 0x6e, 0x74, 0x69, 0x61, 0x6c, 0x5f, 0x31, 0x2f, 0x64,
   0x65, 0x6e, 0x73, 0x65, 0x5f, 0x31, 0x5f, 0x32, 0x2f, 0x41, 0x64, 0x64,
   0x00, 0x00, 0x00, 0x00, 0x02, 0x00, 0x00, 0x00, 0x01, 0x00, 0x00, 0x00,
   0x06, 0x00, 0x00, 0x00, 0x0e, 0xfa, 0xff, 0xff, 0x00, 0x00, 0x00, 0x01,
   0x14, 0x00, 0x00, 0x00, 0x1c, 0x00, 0x00, 0x00, 0x1c, 0x00, 0x00, 0x00,
   0x10, 0x00, 0x00, 0x00, 0x68, 0x00, 0x00, 0x00, 0x02, 0x00, 0x00, 0x00,
   0xff, 0xff, 0xff, 0xff, 0x04, 0x00, 0x00, 0x00, 0xf0, 0xf9, 0xff, 0xff,
   0x4e, 0x00, 0x00, 0x00, 0x73, 0x65, 0x71, 0x75, 0x65, 0x6e, 0x74, 0x69,
   0x61, 0x6c, 0x5f, 0x31, 0x2f, 0x64, 0x65, 0x6e, 0x73, 0x65, 0x5f, 0x31,
   0x2f, 0x4d, 0x61, 0x74, 0x4d, 0x75, 0x6c, 0x3b, 0x73, 0x65, 0x71, 0x75,
   0x65, 0x6e, 0x74, 0x69, 0x61, 0x6c, 0x5f, 0x31, 0x2f, 0x64, 0x65, 0x6e,
   0x73, 0x65, 0x5f, 0x31, 0x2f, 0x52, 0x65, 0x6c, 0x75, 0x3b, 0x73, 0x65,
   0x71, 0x75, 0x65, 0x6e, 0x74, 0x69, 0x61, 0x6c, 0x5f, 0x31, 0x2f, 0x64,
   0x65, 0x6e, 0x73, 0x65, 0x5f, 0x31, 0x2f, 0x41, 0x64, 0x64, 0x00, 0x00,
   0x02, 0x00, 0x00, 0x00, 0x01, 0x00, 0x00, 0x00, 0x04, 0x00, 0x00, 0x00,
   0x9a, 0xfa, 0xff, 0xff, 0x00, 0x00, 0x00, 0x01, 0x14, 0x00, 0x00, 0x00,
   0x1c, 0x00, 0x00, 0x00, 0x1c, 0x00, 0x00, 0x00, 0x0f, 0x00, 0x00, 0x00,
   0x38, 0x00, 0x00, 0x00, 0x02, 0x00, 0x00, 0x00, 0xff, 0xff, 0xff, 0xff,
   0x18, 0x00, 0x00, 0x00, 0x7c, 0xfa, 0xff, 0xff, 0x1e, 0x00, 0x00, 0x00,
   0x73, 0x65, 0x71, 0x75, 0x65, 0x6e, 0x74, 0x69, 0x61, 0x6c, 0x5f, 0x31,
   0x2f, 0x66, 0x6c, 0x61, 0x74, 0x74, 0x65, 0x6e, 0x5f, 0x31, 0x2f, 0x52,
   0x65, 0x73, 0x68, 0x61, 0x70, 0x65, 0x00, 0x00, 0x02, 0x00, 0x00, 0x00,
   0x01, 0x00, 0x00, 0x00, 0x18, 0x00, 0x00, 0x00, 0xf6, 0xfa, 0xff, 0xff,
   0x00, 0x00, 0x00, 0x01, 0x14, 0x00, 0x00, 0x00, 0x24, 0x00, 0x00, 0x00,
   0x24, 0x00, 0x00, 0x00, 0x0e, 0x00, 0x00, 0x00, 0x4c, 0x00, 0x00, 0x00,
   0x04, 0x00, 0x00, 0x00, 0xff, 0xff, 0xff, 0xff, 0x02, 0x00, 0x00, 0x00,
   0x03, 0x00, 0x00, 0x00, 0x04, 0x00, 0x00, 0x00, 0xe0, 0xfa, 0xff, 0xff,
   0x28, 0x00, 0x00, 0x00, 0x73, 0x65, 0x71, 0x75, 0x65, 0x6e, 0x74, 0x69,
   0x61, 0x6c, 0x5f, 0x31, 0x2f, 0x6d, 0x61, 0x78, 0x5f, 0x70, 0x6f, 0x6f,
   0x6c, 0x69, 0x6e, 0x67, 0x32, 0x64, 0x5f, 0x31, 0x5f, 0x32, 0x2f, 0x4d,
   0x61, 0x78, 0x50, 0x6f, 0x6f, 0x6c, 0x32, 0x64, 0x00, 0x00, 0x00, 0x00,
   0x04, 0x00, 0x00, 0x00, 0x01, 0x00, 0x00, 0x00, 0x02, 0x00, 0x00, 0x00,
   0x03, 0x00, 0x00, 0x00, 0x04, 0x00, 0x00, 0x00, 0x6e, 0xfb, 0xff, 0xff,
   0x00, 0x00, 0x00, 0x01, 0x14, 0x00, 0x00, 0x00, 0x24, 0x00, 0x00, 0x00,
   0x24, 0x00, 0x00, 0x00, 0x0d, 0x00, 0x00, 0x00, 0xa0, 0x00, 0x00, 0x00,
   0x04, 0x00, 0x00, 0x00, 0xff, 0xff, 0xff, 0xff, 0x05, 0x00, 0x00, 0x00,
   0x07, 0x00, 0x00, 0x00, 0x04, 0x00, 0x00, 0x00, 0x58, 0xfb, 0xff, 0xff,
   0x7c, 0x00, 0x00, 0x00, 0x73, 0x65, 0x71, 0x75, 0x65, 0x6e, 0x74, 0x69,
   0x61, 0x6c, 0x5f, 0x31, 0x2f, 0x63, 0x6f, 0x6e, 0x76, 0x32, 0x64, 0x5f,
   0x31, 0x5f, 0x32, 0x2f, 0x52, 0x65, 0x6c, 0x75, 0x3b, 0x73, 0x65, 0x71,
   0x75, 0x65, 0x6e, 0x74, 0x69, 0x61, 0x6c, 0x5f, 0x31, 0x2f, 0x63, 0x6f,
   0x6e, 0x76, 0x32, 0x64, 0x5f, 0x31, 0x5f, 0x32, 0x2f, 0x61, 0x64, 0x64,
   0x3b, 0x73, 0x65, 0x71, 0x75, 0x65, 0x6e, 0x74, 0x69, 0x61, 0x6c, 0x5f,
   0x31, 0x2f, 0x63, 0x6f, 0x6e, 0x76, 0x32, 0x64, 0x5f, 0x31, 0x5f, 0x32,
   0x2f, 0x63, 0x6f, 0x6e, 0x76, 0x6f, 0x6c, 0x75, 0x74, 0x69, 0x6f, 0x6e,
   0x3b, 0x73, 0x65, 0x71, 0x75, 0x65, 0x6e, 0x74, 0x69, 0x61, 0x6c, 0x5f,
   0x31, 0x2f, 0x63, 0x6f, 0x6e, 0x76, 0x32, 0x64, 0x5f, 0x31, 0x5f, 0x32,
   0x2f, 0x52, 0x65, 0x73, 0x68, 0x61, 0x70, 0x65, 0x00, 0x00, 0x00, 0x00,
   0x04, 0x00, 0x00, 0x00, 0x01, 0x00, 0x00, 0x00, 0x05, 0x00, 0x00, 0x00,
   0x07, 0x00, 0x00, 0x00, 0x04, 0x00, 0x00, 0x00, 0x3a, 0xfc, 0xff, 0xff,
   0x00, 0x00, 0x00, 0x01, 0x14, 0x00, 0x00, 0x00, 0x24, 0x00, 0x00, 0x00,
   0x24, 0x00, 0x00, 0x00, 0x0c, 0x00, 0x00, 0x00, 0x48, 0x00, 0x00, 0x00,
   0x04, 0x00, 0x00, 0x00, 0xff, 0xff, 0xff, 0xff, 0x07, 0x00, 0x00, 0x00,
   0x09, 0x00, 0x00, 0x00, 0x04, 0x00, 0x00, 0x00, 0x24, 0xfc, 0xff, 0xff,
   0x26, 0x00, 0x00, 0x00, 0x73, 0x65, 0x71, 0x75, 0x65, 0x6e, 0x74, 0x69,
   0x61, 0x6c, 0x5f, 0x31, 0x2f, 0x6d, 0x61, 0x78, 0x5f, 0x70, 0x6f, 0x6f,
   0x6c, 0x69, 0x6e, 0x67, 0x32, 0x64, 0x5f, 0x31, 0x2f, 0x4d, 0x61, 0x78,
   0x50, 0x6f, 0x6f, 0x6c, 0x32, 0x64, 0x00, 0x00, 0x04, 0x00, 0x00, 0x00,
   0x01, 0x00, 0x00, 0x00, 0x07, 0x00, 0x00, 0x00, 0x09, 0x00, 0x00, 0x00,
   0x04, 0x00, 0x00, 0x00, 0xae, 0xfc, 0xff, 0xff, 0x00, 0x00, 0x00, 0x01,
   0x14, 0x00, 0x00, 0x00, 0x24, 0x00, 0x00, 0x00, 0x24, 0x00, 0x00, 0x00,
   0x0b, 0x00, 0x00, 0x00, 0x7c, 0x00, 0x00, 0x00, 0x04, 0x00, 0x00, 0x00,
   0xff, 0xff, 0xff, 0xff, 0x0e, 0x00, 0x00, 0x00, 0x12, 0x00, 0x00, 0x00,
   0x04, 0x00, 0x00, 0x00, 0x98, 0xfc, 0xff, 0xff, 0x58, 0x00, 0x00, 0x00,
   0x73, 0x65, 0x71, 0x75, 0x65, 0x6e, 0x74, 0x69, 0x61, 0x6c, 0x5f, 0x31,
   0x2f, 0x63, 0x6f, 0x6e, 0x76, 0x32, 0x64, 0x5f, 0x31, 0x2f, 0x52, 0x65,
   0x6c, 0x75, 0x3b, 0x73, 0x65, 0x71, 0x75, 0x65, 0x6e, 0x74, 0x69, 0x61,
   0x6c, 0x5f, 0x31, 0x2f, 0x63, 0x6f, 0x6e, 0x76, 0x32, 0x64, 0x5f, 0x31,
   0x2f, 0x61, 0x64, 0x64, 0x3b, 0x73, 0x65, 0x71, 0x75, 0x65, 0x6e, 0x74,
   0x69, 0x61, 0x6c, 0x5f, 0x31, 0x2f, 0x63, 0x6f, 0x6e, 0x76, 0x32, 0x64,
   0x5f, 0x31, 0x2f, 0x63, 0x6f, 0x6e, 0x76, 0x6f, 0x6c, 0x75, 0x74, 0x69,
   0x6f, 0x6e, 0x3b, 0x31, 0x00, 0x00, 0x00, 0x00, 0x04, 0x00, 0x00, 0x00,
   0x01, 0x00, 0x00, 0x00, 0x0e, 0x00, 0x00, 0x00, 0x12, 0x00, 0x00, 0x00,
   0x04, 0x00, 0x00, 0x00, 0xa6, 0xfd, 0xff, 0xff, 0x00, 0x00, 0x00, 0x01,
   0x10, 0x00, 0x00, 0x00, 0x10, 0x00, 0x00, 0x00, 0x0a, 0x00, 0x00, 0x00,
   0x64, 0x00, 0x00, 0x00, 0x28, 0xfd, 0xff, 0xff, 0x57, 0x00, 0x00, 0x00,
   0x73, 0x65, 0x71, 0x75, 0x65, 0x6e, 0x74, 0x69, 0x61, 0x6c, 0x5f, 0x31,
   0x2f, 0x63, 0x6f, 0x6e, 0x76, 0x32, 0x64, 0x5f, 0x31, 0x2f, 0x52, 0x65,
   0x6c, 0x75, 0x3b, 0x73, 0x65, 0x71, 0x75, 0x65, 0x6e, 0x74, 0x69, 0x61,
   0x6c, 0x5f, 0x31, 0x2f, 0x63, 0x6f, 0x6e, 0x76, 0x32, 0x64, 0x5f, 0x31,
   0x2f, 0x61, 0x64, 0x64, 0x3b, 0x73, 0x65, 0x71, 0x75, 0x65, 0x6e, 0x74,
   0x69, 0x61, 0x6c, 0x5f, 0x31, 0x2f, 0x63, 0x6f, 0x6e, 0x76, 0x32, 0x64,
   0x5f, 0x31, 0x2f, 0x63, 0x6f, 0x6e, 0x76, 0x6f, 0x6c, 0x75, 0x74, 0x69,
   0x6f, 0x6e, 0x3b, 0x00, 0x01, 0x00, 0x00, 0x00, 0x04, 0x00, 0x00, 0x00,
   0x26, 0xfe, 0xff, 0xff, 0x00, 0x00, 0x00, 0x01, 0x10, 0x00, 0x00, 0x00,
   0x10, 0x00, 0x00, 0x00, 0x09, 0x00, 0x00, 0x00, 0x30, 0x00, 0x00, 0x00,
   0xa8, 0xfd, 0xff, 0xff, 0x21, 0x00, 0x00, 0x00, 0x73, 0x65, 0x71, 0x75,
   0x65, 0x6e, 0x74, 0x69, 0x61, 0x6c, 0x5f, 0x31, 0x2f, 0x63, 0x6f, 0x6e,
   0x76, 0x32, 0x64, 0x5f, 0x31, 0x2f, 0x63, 0x6f, 0x6e, 0x76, 0x6f, 0x6c,
   0x75, 0x74, 0x69, 0x6f, 0x6e, 0x00, 0x00, 0x00, 0x04, 0x00, 0x00, 0x00,
   0x04, 0x00, 0x00, 0x00, 0x03, 0x00, 0x00, 0x00, 0x03, 0x00, 0x00, 0x00,
   0x01, 0x00, 0x00, 0x00, 0x00, 0x00, 0x16, 0x00, 0x1c, 0x00, 0x18, 0x00,
   0x17, 0x00, 0x10, 0x00, 0x0c, 0x00, 0x08, 0x00, 0x00, 0x00, 0x00, 0x00,
   0x00, 0x00, 0x07, 0x00, 0x16, 0x00, 0x00, 0x00, 0x00, 0x00, 0x00, 0x01,
   0x14, 0x00, 0x00, 0x00, 0x14, 0x00, 0x00, 0x00, 0x08, 0x00, 0x00, 0x00,
   0x00, 0x00, 0x00, 0x02, 0x1c, 0x00, 0x00, 0x00, 0x1c, 0xfe, 0xff, 0xff,
   0x0f, 0x00, 0x00, 0x00, 0x61, 0x72, 0x69, 0x74, 0x68, 0x2e, 0x63, 0x6f,
   0x6e, 0x73, 0x74, 0x61, 0x6e, 0x74, 0x36, 0x00, 0x01, 0x00, 0x00, 0x00,
   0x02, 0x00, 0x00, 0x00, 0xd2, 0xfe, 0xff, 0xff, 0x00, 0x00, 0x00, 0x01,
   0x10, 0x00, 0x00, 0x00, 0x10, 0x00, 0x00, 0x00, 0x07, 0x00, 0x00, 0x00,
   0x1c, 0x00, 0x00, 0x00, 0x54, 0xfe, 0xff, 0xff, 0x0f, 0x00, 0x00, 0x00,
   0x61, 0x72, 0x69, 0x74, 0x68, 0x2e, 0x63, 0x6f, 0x6e, 0x73, 0x74, 0x61,
   0x6e, 0x74, 0x35, 0x00, 0x01, 0x00, 0x00, 0x00, 0x06, 0x00, 0x00, 0x00,
   0x0a, 0xff, 0xff, 0xff, 0x00, 0x00, 0x00, 0x01, 0x10, 0x00, 0x00, 0x00,
   0x10, 0x00, 0x00, 0x00, 0x06, 0x00, 0x00, 0x00, 0x1c, 0x00, 0x00, 0x00,
   0x8c, 0xfe, 0xff, 0xff, 0x0f, 0x00, 0x00, 0x00, 0x61, 0x72, 0x69, 0x74,
   0x68, 0x2e, 0x63, 0x6f, 0x6e, 0x73, 0x74, 0x61, 0x6e, 0x74, 0x34, 0x00,
   0x01, 0x00, 0x00, 0x00, 0x04, 0x00, 0x00, 0x00, 0x42, 0xff, 0xff, 0xff,
   0x00, 0x00, 0x00, 0x01, 0x10, 0x00, 0x00, 0x00, 0x10, 0x00, 0x00, 0x00,
   0x05, 0x00, 0x00, 0x00, 0x1c, 0x00, 0x00, 0x00, 0xc4, 0xfe, 0xff, 0xff,
   0x0f, 0x00, 0x00, 0x00, 0x61, 0x72, 0x69, 0x74, 0x68, 0x2e, 0x63, 0x6f,
   0x6e, 0x73, 0x74, 0x61, 0x6e, 0x74, 0x33, 0x00, 0x02, 0x00, 0x00, 0x00,
   0x04, 0x00, 0x00, 0x00, 0x18, 0x00, 0x00, 0x00, 0x7e, 0xff, 0xff, 0xff,
   0x00, 0x00, 0x00, 0x01, 0x10, 0x00, 0x00, 0x00, 0x10, 0x00, 0x00, 0x00,
   0x04, 0x00, 0x00, 0x00, 0x1c, 0x00, 0x00, 0x00, 0x00, 0xff, 0xff, 0xff,
   0x0f, 0x00, 0x00, 0x00, 0x61, 0x72, 0x69, 0x74, 0x68, 0x2e, 0x63, 0x6f,
   0x6e, 0x73, 0x74, 0x61, 0x6e, 0x74, 0x32, 0x00, 0x02, 0x00, 0x00, 0x00,
   0x06, 0x00, 0x00, 0x00, 0x04, 0x00, 0x00, 0x00, 0xba, 0xff, 0xff, 0xff,
   0x00, 0x00, 0x00, 0x01, 0x10, 0x00, 0x00, 0x00, 0x10, 0x00, 0x00, 0x00,
   0x03, 0x00, 0x00, 0x00, 0x1c, 0x00, 0x00, 0x00, 0x3c, 0xff, 0xff, 0xff,
   0x0f, 0x00, 0x00, 0x00, 0x61, 0x72, 0x69, 0x74, 0x68, 0x2e, 0x63, 0x6f,
   0x6e, 0x73, 0x74, 0x61, 0x6e, 0x74, 0x31, 0x00, 0x04, 0x00, 0x00, 0x00,
   0x04, 0x00, 0x00, 0x00, 0x03, 0x00, 0x00, 0x00, 0x03, 0x00, 0x00, 0x00,
   0x04, 0x00, 0x00, 0x00, 0x00, 0x00, 0x16, 0x00, 0x18, 0x00, 0x14, 0x00,
   0x00, 0x00, 0x10, 0x00, 0x0c, 0x00, 0x08, 0x00, 0x00, 0x00, 0x00, 0x00,
   0x00, 0x00, 0x07, 0x00, 0x16, 0x00, 0x00, 0x00, 0x00, 0x00, 0x00, 0x01,
   0x10, 0x00, 0x00, 0x00, 0x10, 0x00, 0x00, 0x00, 0x02, 0x00, 0x00, 0x00,
   0x1c, 0x00, 0x00, 0x00, 0x98, 0xff, 0xff, 0xff, 0x0e, 0x00, 0x00, 0x00,
   0x61, 0x72, 0x69, 0x74, 0x68, 0x2e, 0x63, 0x6f, 0x6e, 0x73, 0x74, 0x61,
   0x6e, 0x74, 0x00, 0x00, 0x01, 0x00, 0x00, 0x00, 0x04, 0x00, 0x00, 0x00,
   0x00, 0x00, 0x16, 0x00, 0x1c, 0x00, 0x18, 0x00, 0x00, 0x00, 0x14, 0x00,
   0x10, 0x00, 0x0c, 0x00, 0x00, 0x00, 0x00, 0x00, 0x08, 0x00, 0x07, 0x00,
   0x16, 0x00, 0x00, 0x00, 0x00, 0x00, 0x00, 0x01, 0x14, 0x00, 0x00, 0x00,
   0x28, 0x00, 0x00, 0x00, 0x28, 0x00, 0x00, 0x00, 0x01, 0x00, 0x00, 0x00,
   0x44, 0x00, 0x00, 0x00, 0x04, 0x00, 0x00, 0x00, 0xff, 0xff, 0xff, 0xff,
   0x10, 0x00, 0x00, 0x00, 0x14, 0x00, 0x00, 0x00, 0x01, 0x00, 0x00, 0x00,
   0x04, 0x00, 0x04, 0x00, 0x04, 0x00, 0x00, 0x00, 0x1e, 0x00, 0x00, 0x00,
   0x73, 0x65, 0x72, 0x76, 0x69, 0x6e, 0x67, 0x5f, 0x64, 0x65, 0x66, 0x61,
   0x75, 0x6c, 0x74, 0x5f, 0x6b, 0x65, 0x72, 0x61, 0x73, 0x5f, 0x74, 0x65,
   0x6e, 0x73, 0x6f, 0x72, 0x3a, 0x30, 0x00, 0x00, 0x04, 0x00, 0x00, 0x00,
   0x01, 0x00, 0x00, 0x00, 0x10, 0x00, 0x00, 0x00, 0x14, 0x00, 0x00, 0x00,
   0x01, 0x00, 0x00, 0x00, 0x05, 0x00, 0x00, 0x00, 0x50, 0x00, 0x00, 0x00,
   0x34, 0x00, 0x00, 0x00, 0x24, 0x00, 0x00, 0x00, 0x14, 0x00, 0x00, 0x00,
   0x04, 0x00, 0x00, 0x00, 0xd0, 0xff, 0xff, 0xff, 0x19, 0x00, 0x00, 0x00,
   0x00, 0x00, 0x00, 0x19, 0xdc, 0xff, 0xff, 0xff, 0x09, 0x00, 0x00, 0x00,
   0x00, 0x00, 0x00, 0x09, 0xe8, 0xff, 0xff, 0xff, 0x16, 0x00, 0x00, 0x00,
   0x00, 0x00, 0x00, 0x16, 0xf4, 0xff, 0xff, 0xff, 0x11, 0x00, 0x00, 0x00,
   0x00, 0x00, 0x00, 0x11, 0x0c, 0x00, 0x0c, 0x00, 0x0b, 0x00, 0x00, 0x00,
   0x00, 0x00, 0x04, 0x00, 0x0c, 0x00, 0x00, 0x00, 0x03, 0x00, 0x00, 0x00,
   0x00, 0x00, 0x00, 0x03
};

#endif //AUDIO_CLASSIFICATION_MODEL_H
